<pad>	0
<unk>	0
<s>	0
</s>	0
<sep>	0
▁s	-0
an	-1
al	-2
ar	-3
▁c	-4
▁m	-5
ho	-6
▁p	-7
er	-8
en	-9
in	-10
re	-11
▁b	-12
at	-13
▁t	-14
it	-15
ur	-16
▁d	-17
▁g	-18
ic	-19
ent	-20
▁k	-21
am	-22
▁ho	-23
on	-24
ol	-25
ri	-26
ha	-27
▁n	-28
ra	-29
hi	-30
▁a	-31
le	-32
st	-33
sp	-34
ad	-35
and	-36
▁v	-37
or	-38
el	-39
ital	-40
▁f	-41
▁hosp	-42
▁l	-43
▁hospital	-44
entre	-45
▁h	-46
as	-47
▁st	-48
es	-49
▁su	-50
▁o	-51
▁j	-52
un	-53
▁sc	-54
▁r	-55
et	-56
il	-57
ch	-58
ed	-59
hool	-60
em	-61
▁school	-62
ing	-63
ary	-64
▁ch	-65
ak	-66
ion	-67
ay	-68
ai	-69
ut	-70
▁sub	-71
sh	-72
▁re	-73
▁go	-74
▁w	-75
ag	-76
um	-77
▁in	-78
ir	-79
th	-80
id	-81
▁and	-82
ul	-83
centre	-84
od	-85
▁of	-86
▁subcentre	-87
▁e	-88
▁cl	-89
▁sh	-90
ap	-91
ern	-92
▁co	-93
av	-94
ice	-95
ore	-96
▁centre	-97
ab	-98
ant	-99
ment	-100
ple	-101
us	-102
▁ra	-103
▁pri	-104
ation	-105
inic	-106
all	-107
▁clinic	-108
▁gov	-109
▁th	-110
ud	-111
ank	-112
▁tem	-113
▁prim	-114
ang	-115
▁temple	-116
ara	-117
pur	-118
is	-119
▁ma	-120
▁primary	-121
ot	-122
ro	-123
ari	-124
▁he	-125
up	-126
ity	-127
▁ph	-128
iv	-129
▁store	-130
ath	-131
▁dr	-132
▁govern	-133
ew	-134
hop	-135
▁hot	-136
▁government	-137
ec	-138
ala	-139
▁off	-140
im	-141
are	-142
ge	-143
▁office	-144
ers	-145
ya	-146
ma	-147
uk	-148
me	-149
▁sri	-150
gh	-151
▁hotel	-152
ee	-153
▁di	-154
ical	-155
ce	-156
▁col	-157
alth	-158
▁bank	-159
▁health	-160
▁po	-161
▁hi	-162
▁the	-163
▁de	-164
▁med	-165
art	-166
▁home	-167
ub	-168
om	-169
ran	-170
per	-171
ery	-172
att	-173
▁phc	-174
▁shop	-175
ct	-176
ik	-177
▁colle	-178
ree	-179
oc	-180
ow	-181
▁bh	-182
ana	-183
ani	-184
▁new	-185
na	-186
▁sp	-187
▁am	-188
ark	-189
di	-190
ill	-191
▁high	-192
▁ro	-193
ast	-194
▁college	-195
ish	-196
esh	-197
▁te	-198
▁ag	-199
os	-200
ort	-201
oor	-202
enter	-203
▁i	-204
▁rest	-205
ss	-206
ine	-207
▁ar	-208
▁y	-209
la	-210
ali	-211
ental	-212
▁bo	-213
af	-214
▁an	-215
ti	-216
▁medical	-217
og	-218
aur	-219
▁shi	-220
▁care	-221
ok	-222
use	-223
▁bran	-224
▁dental	-225
▁branch	-226
anc	-227
urs	-228
ate	-229
ig	-230
und	-231
ens	-232
ard	-233
hak	-234
yal	-235
▁mand	-236
ram	-237
▁sw	-238
ood	-239
▁restaur	-240
▁me	-241
▁com	-242
▁tra	-243
fc	-244
▁raj	-245
▁pat	-246
▁mo	-247
▁bha	-248
ond	-249
har	-250
han	-251
ld	-252
▁hd	-253
eng	-254
▁restaurant	-255
▁bak	-256
▁hdfc	-257
▁nurs	-258
▁center	-259
▁un	-260
erv	-261
ell	-262
aya	-263
agar	-264
▁shri	-265
ta	-266
▁mas	-267
▁sec	-268
op	-269
ip	-270
war	-271
▁man	-272
ga	-273
ial	-274
▁ay	-275
ue	-276
▁mat	-277
ori	-278
▁caf	-279
▁chur	-280
ric	-281
▁par	-282
▁res	-283
▁wor	-284
▁house	-285
ower	-286
▁nursing	-287
adi	-288
▁sa	-289
ru	-290
io	-291
▁church	-292
▁serv	-293
ey	-294
mi	-295
▁cha	-296
▁z	-297
▁chi	-298
ks	-299
▁be	-300
int	-301
ukh	-302
uru	-303
arma	-304
wal	-305
▁post	-306
▁cafe	-307
pp	-308
▁indi	-309
▁ha	-310
▁mandir	-311
jee	-312
▁mal	-313
▁al	-314
jid	-315
aj	-316
ational	-317
ive	-318
▁dev	-319
amb	-320
uc	-321
▁mad	-322
▁lower	-323
enc	-324
▁ad	-325
▁vi	-326
if	-327
ans	-328
▁sai	-329
▁inst	-330
ys	-331
▁maha	-332
▁ram	-333
▁masjid	-334
▁up	-335
▁ele	-336
ess	-337
athi	-338
az	-339
end	-340
les	-341
ia	-342
ons	-343
ye	-344
ind	-345
kar	-346
ash	-347
▁sur	-348
van	-349
air	-350
ada	-351
abad	-352
ure	-353
ati	-354
▁ac	-355
hra	-356
ni	-357
li	-358
▁ja	-359
▁bar	-360
akk	-361
age	-362
ved	-363
▁elect	-364
▁second	-365
▁higher	-366
ev	-367
▁ta	-368
▁eye	-369
ick	-370
▁ex	-371
▁secondary	-372
▁sal	-373
erjee	-374
▁kan	-375
▁food	-376
▁ayur	-377
▁sree	-378
ear	-379
▁stores	-380
ute	-381
▁-	-382
amp	-383
▁disp	-384
eet	-385
▁instit	-386
▁bakery	-387
▁ayurved	-388
ecial	-389
ah	-390
lic	-391
ass	-392
▁royal	-393
▁eng	-394
▁kum	-395
▁host	-396
ph	-397
▁sing	-398
hot	-399
▁pa	-400
app	-401
▁pra	-402
ist	-403
our	-404
▁super	-405
td	-406
rish	-407
bi	-408
▁int	-409
▁mul	-410
▁gro	-411
▁dispens	-412
arket	-413
hab	-414
ora	-415
ance	-416
▁hostel	-417
▁bl	-418
ener	-419
▁pl	-420
▁mar	-421
▁im	-422
apur	-423
▁shree	-424
▁dispensary	-425
▁institute	-426
alli	-427
ji	-428
▁kar	-429
▁vid	-430
▁ltd	-431
jan	-432
▁pre	-433
eciality	-434
wari	-435
uth	-436
▁ind	-437
▁stud	-438
▁thi	-439
dy	-440
▁ve	-441
▁aut	-442
▁kul	-443
▁service	-444
ris	-445
▁singh	-446
▁pub	-447
▁pet	-448
▁mah	-449
ics	-450
ry	-451
▁no	-452
▁child	-453
ll	-454
▁gener	-455
▁kumar	-456
ata	-457
▁park	-458
hay	-459
eri	-460
▁kal	-461
ency	-462
one	-463
▁ti	-464
▁car	-465
olog	-466
ini	-467
▁cor	-468
▁kh	-469
▁red	-470
▁star	-471
wara	-472
▁electr	-473
ative	-474
ashi	-475
▁public	-476
▁ed	-477
▁le	-478
man	-479
▁men	-480
▁pan	-481
▁sha	-482
▁general	-483
▁jain	-484
chn	-485
▁pand	-486
oci	-487
angal	-488
▁so	-489
qu	-490
umb	-491
ka	-492
▁ass	-493
▁ne	-494
▁lo	-495
▁gur	-496
▁chand	-497
ach	-498
▁pala	-499
▁ko	-500
▁nag	-501
rishna	-502
▁vij	-503
▁multi	-504
▁gup	-505
adav	-506
▁trad	-507
▁sm	-508
arwal	-509
ck	-510
▁ud	-511
▁mem	-512
▁as	-513
▁shiv	-514
▁pr	-515
▁chc	-516
▁mod	-517
▁sar	-518
ily	-519
▁das	-520
▁vis	-521
▁gol	-522
ult	-523
▁far	-524
ly	-525
▁fam	-526
▁con	-527
▁ration	-528
orial	-529
ors	-530
▁pv	-531
▁nagar	-532
▁station	-533
▁mun	-534
▁bab	-535
▁patel	-536
gaon	-537
▁jai	-538
▁del	-539
▁vill	-540
▁gu	-541
▁pro	-542
co	-543
▁ap	-544
▁pill	-545
▁em	-546
▁all	-547
▁bans	-548
uz	-549
▁comm	-550
▁sk	-551
▁1	-552
▁sol	-553
ivers	-554
▁palace	-555
▁ver	-556
▁state	-557
perative	-558
▁panc	-559
▁gupta	-560
▁gan	-561
uv	-562
ott	-563
▁thak	-564
▁mukh	-565
▁met	-566
aksh	-567
▁vad	-568
▁bhat	-569
▁govt	-570
▁var	-571
ater	-572
▁cho	-573
▁ka	-574
ava	-575
ja	-576
urn	-577
rit	-578
utt	-579
est	-580
que	-581
yo	-582
▁book	-583
▁pvt	-584
▁sharma	-585
▁sam	-586
▁mish	-587
ions	-588
pt	-589
▁reddy	-590
▁nair	-591
een	-592
▁rao	-593
ham	-594
uty	-595
▁or	-596
▁memorial	-597
▁desh	-598
▁mot	-599
▁univers	-600
▁se	-601
▁dist	-602
▁indian	-603
hav	-604
ies	-605
itt	-606
▁kap	-607
▁ayurveda	-608
▁chatt	-609
▁world	-610
▁to	-611
▁upper	-612
▁jew	-613
wa	-614
▁pillai	-615
▁san	-616
▁tir	-617
▁la	-618
▁ur	-619
▁techn	-620
▁works	-621
rol	-622
▁agarwal	-623
▁intern	-624
hotra	-625
yer	-626
mukh	-627
▁bansal	-628
▁matern	-629
▁thakur	-630
▁national	-631
▁nar	-632
▁pol	-633
ates	-634
▁devi	-635
ber	-636
ral	-637
ren	-638
▁sun	-639
▁pun	-640
ght	-641
kk	-642
▁u	-643
▁maternity	-644
▁tax	-645
▁comp	-646
▁university	-647
hm	-648
▁panchay	-649
▁pay	-650
▁studio	-651
vel	-652
▁india	-653
emy	-654
▁mon	-655
▁verma	-656
uma	-657
▁malhotra	-658
▁acad	-659
▁yadav	-660
▁mishra	-661
▁krishna	-662
earch	-663
puram	-664
▁mart	-665
▁kulkar	-666
ff	-667
▁city	-668
ls	-669
▁fl	-670
▁mehra	-671
▁menon	-672
ock	-673
▁oyo	-674
ty	-675
▁veg	-676
▁ort	-677
▁maa	-678
▁deshmukh	-679
▁research	-680
▁swam	-681
▁pandey	-682
ner	-683
operative	-684
hu	-685
▁dep	-686
▁for	-687
▁point	-688
▁ang	-689
der	-690
▁sriv	-691
nam	-692
▁medicals	-693
no	-694
yan	-695
▁per	-696
▁vet	-697
▁gre	-698
▁on	-699
▁family	-700
▁mahajan	-701
ology	-702
▁kulkarni	-703
rict	-704
▁tiwari	-705
▁market	-706
▁arora	-707
▁ab	-708
▁sweet	-709
ipal	-710
za	-711
ver	-712
▁bea	-713
arh	-714
▁hy	-715
da	-716
itch	-717
▁gold	-718
iss	-719
▁sons	-720
▁mukherjee	-721
▁kol	-722
ayam	-723
ps	-724
▁iyer	-725
chi	-726
▁gir	-727
▁speciality	-728
▁air	-729
▁traders	-730
▁engine	-731
ban	-732
▁tri	-733
▁ins	-734
▁auto	-735
▁mobi	-736
ith	-737
ft	-738
ne	-739
▁district	-740
▁dig	-741
ite	-742
wan	-743
▁reg	-744
iz	-745
▁bhar	-746
▁srivast	-747
▁gram	-748
▁gr	-749
▁kapoor	-750
▁children	-751
yam	-752
ction	-753
▁chatterjee	-754
nu	-755
sa	-756
de	-757
ust	-758
lo	-759
▁beauty	-760
▁pal	-761
▁academy	-762
iri	-763
ence	-764
▁art	-765
▁tran	-766
ther	-767
lish	-768
ural	-769
▁2	-770
▁munic	-771
ness	-772
uri	-773
▁enter	-774
▁engineer	-775
uest	-776
▁village	-777
ulam	-778
ress	-779
sc	-780
asi	-781
▁international	-782
▁guest	-783
shi	-784
aram	-785
ong	-786
▁sci	-787
▁gang	-788
unt	-789
▁ven	-790
▁bhag	-791
ode	-792
ices	-793
▁hub	-794
akshmi	-795
▁srivastava	-796
▁ground	-797
▁dhab	-798
▁fi	-799
orts	-800
ug	-801
▁enterp	-802
sar	-803
▁thiru	-804
▁english	-805
▁sr	-806
▁pharma	-807
▁cent	-808
he	-809
vi	-810
ited	-811
dev	-812
▁cons	-813
▁x	-814
ba	-815
ian	-816
ally	-817
▁at	-818
▁fo	-819
▁jun	-820
▁petrol	-821
se	-822
icals	-823
▁sid	-824
▁municipal	-825
▁mall	-826
▁jos	-827
▁tea	-828
▁cre	-829
▁jod	-830
era	-831
▁it	-832
▁fit	-833
market	-834
▁girls	-835
▁medic	-836
▁kad	-837
cy	-838
eep	-839
▁associ	-840
▁pla	-841
▁hair	-842
▁parl	-843
▁/	-844
▁bal	-845
▁jewell	-846
▁rai	-847
ym	-848
▁enterpris	-849
anj	-850
ump	-851
▁kur	-852
ush	-853
▁inn	-854
▁ker	-855
ayan	-856
▁lud	-857
athy	-858
▁gha	-859
▁lim	-860
▁salon	-861
ena	-862
eswar	-863
oth	-864
atho	-865
▁kir	-866
▁furn	-867
▁kitch	-868
▁char	-869
▁solut	-870
eth	-871
▁lab	-872
▁goa	-873
▁koc	-874
ware	-875
▁sho	-876
bal	-877
▁dar	-878
able	-879
▁modern	-880
cl	-881
avu	-882
had	-883
hira	-884
▁fashi	-885
▁parking	-886
▁da	-887
▁dur	-888
ior	-889
endra	-890
▁chick	-891
▁jo	-892
▁ol	-893
ung	-894
▁engineering	-895
▁dhaba	-896
▁kid	-897
▁imp	-898
▁kitchen	-899
▁educ	-900
▁resid	-901
▁mary	-902
▁urban	-903
▁vin	-904
▁fast	-905
▁mys	-906
ve	-907
mo	-908
aid	-909
ikk	-910
▁bag	-911
▁commun	-912
te	-913
▁bho	-914
▁poly	-915
anda	-916
speciality	-917
ise	-918
▁diag	-919
▁insur	-920
ema	-921
urt	-922
▁ri	-923
inary	-924
▁supermarket	-925
pal	-926
▁vijaya	-927
▁zone	-928
▁travel	-929
▁lod	-930
ida	-931
ika	-932
hpur	-933
▁electron	-934
▁gar	-935
▁lif	-936
▁tho	-937
▁guw	-938
bo	-939
atha	-940
▁kerala	-941
ake	-942
dha	-943
▁nav	-944
▁tail	-945
▁grand	-946
▁hard	-947
▁sweets	-948
ding	-949
▁kam	-950
▁tex	-951
▁jam	-952
ety	-953
▁juma	-954
▁metro	-955
way	-956
▁corner	-957
▁mangal	-958
ight	-959
iture	-960
ann	-961
uti	-962
ac	-963
▁surg	-964
ium	-965
▁wom	-966
▁amrit	-967
▁furniture	-968
▁chicken	-969
▁sat	-970
▁my	-971
▁bus	-972
▁sy	-973
▁sports	-974
kh	-975
hap	-976
fi	-977
aka	-978
adu	-979
▁om	-980
▁bas	-981
▁bu	-982
▁digital	-983
▁limited	-984
▁bhavan	-985
enn	-986
imb	-987
alam	-988
▁bir	-989
▁ba	-990
▁el	-991
uck	-992
ila	-993
own	-994
▁parlour	-995
▁har	-996
▁road	-997
▁services	-998
▁ayurvedic	-999
ina	-1000
▁adv	-1001
▁mumb	-1002
eshwar	-1003
▁cin	-1004
▁sil	-1005
eo	-1006
▁guru	-1007
▁motors	-1008
▁stall	-1009
si	-1010
por	-1011
▁exp	-1012
▁fitness	-1013
ady	-1014
▁solutions	-1015
▁baz	-1016
ign	-1017
▁mus	-1018
nost	-1019
▁pharmacy	-1020
▁bala	-1021
▁resort	-1022
▁val	-1023
▁delhi	-1024
bar	-1025
zi	-1026
fer	-1027
▁is	-1028
▁mobile	-1029
▁venk	-1030
▁agency	-1031
▁associates	-1032
▁fashion	-1033
pa	-1034
▁spa	-1035
▁consult	-1036
▁do	-1037
▁central	-1038
▁veter	-1039
▁bro	-1040
plex	-1041
wada	-1042
antha	-1043
kot	-1044
ory	-1045
▁anand	-1046
iy	-1047
▁des	-1048
▁amb	-1049
▁block	-1050
▁mumbai	-1051
▁ir	-1052
▁vish	-1053
▁ju	-1054
▁dhar	-1055
▁diagnost	-1056
▁technology	-1057
▁class	-1058
va	-1059
yalaya	-1060
ek	-1061
▁na	-1062
▁group	-1063
▁ak	-1064
▁kun	-1065
▁skin	-1066
ift	-1067
▁net	-1068
▁noida	-1069
▁veterinary	-1070
artment	-1071
▁life	-1072
apuram	-1073
▁bik	-1074
▁fee	-1075
▁dh	-1076
ira	-1077
resh	-1078
▁agra	-1079
▁gas	-1080
▁multispeciality	-1081
ale	-1082
▁pur	-1083
▁soci	-1084
line	-1085
▁pras	-1086
▁panchayath	-1087
▁camp	-1088
▁electronics	-1089
ect	-1090
▁3	-1091
▁enterprises	-1092
▁angan	-1093
▁kott	-1094
▁app	-1095
pura	-1096
urai	-1097
▁lakshmi	-1098
iya	-1099
▁varan	-1100
▁sev	-1101
▁smart	-1102
rt	-1103
anchi	-1104
ukk	-1105
▁luck	-1106
▁tal	-1107
asa	-1108
▁pad	-1109
▁train	-1110
▁grama	-1111
lp	-1112
▁emp	-1113
▁science	-1114
eph	-1115
ich	-1116
yani	-1117
▁ortho	-1118
▁farid	-1119
▁4	-1120
▁son	-1121
▁yog	-1122
▁medium	-1123
its	-1124
▁fin	-1125
▁vinay	-1126
▁mil	-1127
▁society	-1128
▁ice	-1129
▁fore	-1130
▁nat	-1131
▁insurance	-1132
mal	-1133
▁gym	-1134
▁sand	-1135
▁club	-1136
▁bi	-1137
vate	-1138
▁texti	-1139
itha	-1140
dar	-1141
uman	-1142
ancy	-1143
▁chem	-1144
▁court	-1145
yot	-1146
▁baba	-1147
▁complex	-1148
oo	-1149
▁ahm	-1150
▁boys	-1151
▁ji	-1152
▁ann	-1153
▁gift	-1154
xmi	-1155
▁gl	-1156
▁ash	-1157
ional	-1158
▁mahadev	-1159
▁qu	-1160
▁ent	-1161
ade	-1162
▁durga	-1163
▁nagpur	-1164
▁residency	-1165
▁homeo	-1166
gy	-1167
▁bhop	-1168
ox	-1169
▁fru	-1170
▁vadod	-1171
▁baj	-1172
▁kochi	-1173
▁big	-1174
▁vai	-1175
hrad	-1176
ement	-1177
atre	-1178
▁jodhpur	-1179
sha	-1180
▁han	-1181
▁pump	-1182
▁private	-1183
ura	-1184
▁tr	-1185
▁gam	-1186
aipur	-1187
▁hospitals	-1188
habad	-1189
▁bhand	-1190
▁corpor	-1191
hat	-1192
▁veget	-1193
▁balaji	-1194
▁varanasi	-1195
▁jan	-1196
imbat	-1197
udh	-1198
now	-1199
▁surgical	-1200
▁cant	-1201
▁department	-1202
▁hall	-1203
▁rural	-1204
▁electricals	-1205
els	-1206
▁tiruc	-1207
eshwara	-1208
▁gurgaon	-1209
eer	-1210
▁phys	-1211
ita	-1212
▁ty	-1213
uzha	-1214
aramb	-1215
▁foot	-1216
tok	-1217
▁thiruvan	-1218
adies	-1219
▁alla	-1220
▁vas	-1221
▁golden	-1222
igarh	-1223
▁ladies	-1224
ux	-1225
▁pul	-1226
hiana	-1227
▁coff	-1228
▁hardware	-1229
ama	-1230
▁ahmed	-1231
dh	-1232
▁king	-1233
ange	-1234
mas	-1235
▁community	-1236
als	-1237
any	-1238
▁play	-1239
▁sang	-1240
▁coimbat	-1241
▁education	-1242
uban	-1243
▁swami	-1244
▁bhopal	-1245
▁cro	-1246
hradun	-1247
▁jaipur	-1248
▁electric	-1249
ink	-1250
▁faridabad	-1251
▁jewellers	-1252
▁sad	-1253
ony	-1254
▁beng	-1255
asw	-1256
▁premi	-1257
phal	-1258
▁trans	-1259
▁vadodara	-1260
oll	-1261
ines	-1262
▁shim	-1263
▁travels	-1264
hil	-1265
▁kanpur	-1266
▁rajkot	-1267
▁av	-1268
▁day	-1269
▁chenn	-1270
▁women	-1271
▁jag	-1272
ments	-1273
upp	-1274
▁swamy	-1275
▁amritsar	-1276
▁fish	-1277
▁sant	-1278
▁bhagav	-1279
cle	-1280
▁opt	-1281
▁madurai	-1282
▁aj	-1283
▁cher	-1284
hib	-1285
ury	-1286
ission	-1287
▁ic	-1288
▁civ	-1289
▁ge	-1290
ane	-1291
▁plaza	-1292
▁panchayat	-1293
▁id	-1294
anam	-1295
▁her	-1296
▁patna	-1297
▁prime	-1298
▁div	-1299
hirapp	-1300
▁board	-1301
▁textiles	-1302
hy	-1303
▁siv	-1304
atnam	-1305
▁shill	-1306
▁comput	-1307
ins	-1308
oon	-1309
▁juice	-1310
▁orthop	-1311
▁ranchi	-1312
ous	-1313
▁ant	-1314
▁ghazi	-1315
▁visak	-1316
▁mos	-1317
▁indore	-1318
una	-1319
edic	-1320
▁gard	-1321
▁cy	-1322
▁set	-1323
▁nand	-1324
▁kirana	-1325
sm	-1326
▁cinema	-1327
▁inf	-1328
▁joseph	-1329
▁sn	-1330
▁cle	-1331
▁ludhiana	-1332
▁coimbatore	-1333
haw	-1334
▁hari	-1335
▁ste	-1336
▁pune	-1337
▁green	-1338
▁coffee	-1339
▁theatre	-1340
▁dehradun	-1341
wadi	-1342
apy	-1343
anth	-1344
▁acc	-1345
avi	-1346
▁imphal	-1347
▁kids	-1348
▁mysuru	-1349
▁hyder	-1350
▁raipur	-1351
▁gangtok	-1352
orium	-1353
▁homo	-1354
▁udaipur	-1355
ua	-1356
▁cap	-1357
▁buil	-1358
▁heart	-1359
ahati	-1360
hik	-1361
▁surat	-1362
▁bhuban	-1363
▁allahabad	-1364
edi	-1365
▁nam	-1366
▁sen	-1367
▁lodge	-1368
tt	-1369
▁cater	-1370
▁bakers	-1371
▁online	-1372
ctor	-1373
▁mahal	-1374
▁bharat	-1375
oi	-1376
▁tv	-1377
atra	-1378
hai	-1379
▁ga	-1380
▁mer	-1381
▁pool	-1382
▁tiruchirapp	-1383
gan	-1384
lam	-1385
▁gand	-1386
▁shimla	-1387
▁canteen	-1388
ream	-1389
▁chandigarh	-1390
▁ganesh	-1391
▁vidyalaya	-1392
arya	-1393
▁fri	-1394
▁mini	-1395
▁kod	-1396
▁kolk	-1397
anthapuram	-1398
▁cooperative	-1399
istr	-1400
▁water	-1401
▁kot	-1402
▁khan	-1403
ela	-1404
▁mangaluru	-1405
▁tyre	-1406
house	-1407
▁loc	-1408
udi	-1409
rist	-1410
vent	-1411
▁bad	-1412
uthi	-1413
fa	-1414
ov	-1415
▁fun	-1416
ayana	-1417
▁card	-1418
▁fancy	-1419
▁south	-1420
▁ghaziabad	-1421
▁company	-1422
ert	-1423
▁homeop	-1424
▁vijayawada	-1425
rig	-1426
▁lp	-1427
▁chennai	-1428
▁guwahati	-1429
▁cloth	-1430
▁tailor	-1431
raft	-1432
let	-1433
▁baby	-1434
araj	-1435
care	-1436
▁che	-1437
▁ahmedabad	-1438
▁collection	-1439
hn	-1440
▁pg	-1441
ankar	-1442
▁town	-1443
▁shillong	-1444
▁gh	-1445
▁part	-1446
▁fu	-1447
ashik	-1448
▁civil	-1449
▁shopp	-1450
ms	-1451
▁foods	-1452
▁bre	-1453
unge	-1454
▁jay	-1455
nath	-1456
▁rep	-1457
▁chet	-1458
▁tata	-1459
▁trip	-1460
▁jyot	-1461
▁bhandar	-1462
▁fa	-1463
▁mosque	-1464
▁kolkata	-1465
▁consultant	-1466
omo	-1467
▁lal	-1468
▁haz	-1469
▁bengal	-1470
▁corporation	-1471
▁cab	-1472
▁lucknow	-1473
ds	-1474
▁loan	-1475
▁bike	-1476
▁shak	-1477
▁supp	-1478
▁nashik	-1479
▁physio	-1480
▁garden	-1481
br	-1482
▁bhubaneswar	-1483
gn	-1484
angalam	-1485
gal	-1486
▁cool	-1487
▁visakhap	-1488
▁tiruchirappalli	-1489
atta	-1490
char	-1491
▁ran	-1492
▁thir	-1493
▁model	-1494
▁kall	-1495
▁7	-1496
hal	-1497
▁dhan	-1498
▁fil	-1499
▁mari	-1500
▁inter	-1501
▁shiva	-1502
appa	-1503
▁bra	-1504
▁gra	-1505
▁mata	-1506
▁ali	-1507
▁bri	-1508
▁ksh	-1509
▁payment	-1510
▁beach	-1511
▁patil	-1512
▁nir	-1513
pl	-1514
▁bhu	-1515
▁sab	-1516
▁fresh	-1517
▁cont	-1518
▁rail	-1519
▁bs	-1520
▁deep	-1521
▁by	-1522
▁er	-1523
▁vel	-1524
▁cream	-1525
▁llp	-1526
▁order	-1527
▁prasad	-1528
avan	-1529
inal	-1530
sport	-1531
▁arts	-1532
▁bill	-1533
▁hanuman	-1534
▁hyderabad	-1535
▁fir	-1536
▁bis	-1537
▁nor	-1538
▁more	-1539
stay	-1540
elf	-1541
therapy	-1542
dhi	-1543
▁pall	-1544
vis	-1545
▁top	-1546
▁gall	-1547
atti	-1548
kal	-1549
port	-1550
▁li	-1551
▁mang	-1552
▁room	-1553
▁ca	-1554
akh	-1555
▁junior	-1556
▁gurud	-1557
▁premium	-1558
▁building	-1559
ng	-1560
nagar	-1561
▁bud	-1562
▁kha	-1563
▁mic	-1564
ola	-1565
▁bur	-1566
▁glo	-1567
▁vidya	-1568
▁q	-1569
▁bod	-1570
▁senior	-1571
▁op	-1572
▁amr	-1573
raj	-1574
kan	-1575
▁aid	-1576
▁god	-1577
▁geor	-1578
adh	-1579
com	-1580
▁oil	-1581
▁bajaj	-1582
▁clean	-1583
▁vijay	-1584
garh	-1585
▁nas	-1586
▁wear	-1587
▁pu	-1588
▁kann	-1589
▁manj	-1590
▁diagnostic	-1591
▁homestay	-1592
akkal	-1593
nt	-1594
oli	-1595
▁gandhi	-1596
▁gri	-1597
aar	-1598
▁transfer	-1599
ula	-1600
reet	-1601
▁ban	-1602
▁shah	-1603
▁manag	-1604
▁pe	-1605
▁kav	-1606
▁hill	-1607
▁tick	-1608
▁cur	-1609
▁unit	-1610
▁local	-1611
▁visakhapatnam	-1612
▁deh	-1613
▁pow	-1614
▁vell	-1615
jab	-1616
etty	-1617
▁lux	-1618
athic	-1619
▁orthod	-1620
my	-1621
▁ov	-1622
▁orthopa	-1623
▁training	-1624
▁saloon	-1625
▁finance	-1626
▁convent	-1627
▁box	-1628
▁sak	-1629
▁thomas	-1630
▁dry	-1631
▁chai	-1632
▁chak	-1633
hol	-1634
osa	-1635
ittal	-1636
▁lounge	-1637
▁laxmi	-1638
▁george	-1639
thi	-1640
▁mu	-1641
atch	-1642
▁um	-1643
▁jio	-1644
riya	-1645
▁hal	-1646
udhary	-1647
▁north	-1648
eshwari	-1649
▁east	-1650
▁advanc	-1651
yar	-1652
uli	-1653
▁mill	-1654
▁tru	-1655
▁ticket	-1656
▁express	-1657
anga	-1658
▁shant	-1659
▁technolog	-1660
▁jal	-1661
▁hand	-1662
▁collect	-1663
airy	-1664
▁pod	-1665
▁farm	-1666
▁muse	-1667
▁sect	-1668
▁ni	-1669
▁yo	-1670
ami	-1671
▁tech	-1672
▁tele	-1673
▁west	-1674
▁agenc	-1675
▁physiotherapy	-1676
nal	-1677
rat	-1678
was	-1679
▁orthopaedic	-1680
ayil	-1681
▁villa	-1682
▁br	-1683
ganj	-1684
▁thri	-1685
▁museum	-1686
cha	-1687
ney	-1688
▁dub	-1689
▁tre	-1690
▁math	-1691
▁money	-1692
▁venkat	-1693
▁mobiles	-1694
▁pav	-1695
▁agencies	-1696
▁airport	-1697
▁mission	-1698
▁advanced	-1699
▁band	-1700
▁tour	-1701
▁dairy	-1702
▁khand	-1703
▁christ	-1704
hc	-1705
▁mag	-1706
▁fine	-1707
onal	-1708
ences	-1709
▁well	-1710
▁are	-1711
▁kris	-1712
du	-1713
kulam	-1714
▁gallery	-1715
uda	-1716
▁homoeo	-1717
eli	-1718
wla	-1719
▁repair	-1720
▁management	-1721
ko	-1722
▁piz	-1723
▁saf	-1724
▁tha	-1725
▁land	-1726
▁puth	-1727
▁saint	-1728
bha	-1729
eni	-1730
▁kari	-1731
▁automo	-1732
phc	-1733
▁mi	-1734
▁plan	-1735
▁mittal	-1736
▁street	-1737
▁bengaluru	-1738
▁ps	-1739
▁out	-1740
wor	-1741
▁indust	-1742
▁automobi	-1743
aji	-1744
pet	-1745
▁devel	-1746
cu	-1747
vil	-1748
▁jad	-1749
▁tim	-1750
ables	-1751
▁global	-1752
▁wh	-1753
▁las	-1754
▁narayana	-1755
vid	-1756
▁es	-1757
▁ret	-1758
▁sim	-1759
▁mant	-1760
▁technologies	-1761
▁develop	-1762
odu	-1763
▁jee	-1764
▁mess	-1765
▁show	-1766
▁first	-1767
▁light	-1768
▁atm	-1769
▁bom	-1770
utique	-1771
unnu	-1772
▁sagar	-1773
▁electrical	-1774
nl	-1775
iket	-1776
▁sna	-1777
▁raju	-1778
▁cal	-1779
techn	-1780
iff	-1781
band	-1782
▁war	-1783
▁srin	-1784
▁railway	-1785
▁sanj	-1786
uch	-1787
▁si	-1788
▁kali	-1789
▁phot	-1790
ication	-1791
▁chandra	-1792
wear	-1793
▁van	-1794
▁mens	-1795
▁bazar	-1796
▁registr	-1797
gi	-1798
mc	-1799
▁matha	-1800
▁capital	-1801
▁emporium	-1802
▁sciences	-1803
vani	-1804
▁att	-1805
▁cer	-1806
▁tan	-1807
▁vil	-1808
▁joshi	-1809
▁kendra	-1810
▁jewellery	-1811
eb	-1812
pc	-1813
▁matric	-1814
▁test	-1815
▁bhawan	-1816
eed	-1817
▁bel	-1818
▁pari	-1819
▁aided	-1820
▁exper	-1821
▁stationery	-1822
arn	-1823
▁nad	-1824
technic	-1825
▁punjab	-1826
▁bhagavathi	-1827
yle	-1828
▁din	-1829
▁view	-1830
angara	-1831
▁goyal	-1832
▁az	-1833
ett	-1834
anta	-1835
osit	-1836
▁fab	-1837
▁blue	-1838
▁mani	-1839
▁sahib	-1840
▁polytechnic	-1841
▁kr	-1842
hari	-1843
wani	-1844
▁gst	-1845
▁chap	-1846
▁sara	-1847
alia	-1848
▁hind	-1849
▁bazaar	-1850
▁anj	-1851
▁dec	-1852
▁amaz	-1853
▁batt	-1854
▁holy	-1855
▁boutique	-1856
▁exc	-1857
▁pap	-1858
▁path	-1859
assery	-1860
po	-1861
day	-1862
▁ref	-1863
▁milk	-1864
▁rent	-1865
▁seva	-1866
▁ss	-1867
▁min	-1868
▁good	-1869
▁famous	-1870
▁us	-1871
wala	-1872
ley	-1873
▁computer	-1874
▁orig	-1875
▁wood	-1876
hir	-1877
rap	-1878
▁may	-1879
▁john	-1880
▁line	-1881
▁medicos	-1882
zo	-1883
▁nr	-1884
ming	-1885
▁meh	-1886
akkad	-1887
▁chau	-1888
▁stay	-1889
▁coach	-1890
▁luxury	-1891
ato	-1892
▁mak	-1893
▁litt	-1894
▁industri	-1895
ents	-1896
hill	-1897
ular	-1898
▁nan	-1899
▁chin	-1900
▁mc	-1901
▁ms	-1902
▁ayy	-1903
alayam	-1904
▁dress	-1905
▁mur	-1906
▁mut	-1907
▁sre	-1908
orm	-1909
▁coi	-1910
▁power	-1911
▁choudhary	-1912
▁5	-1913
▁count	-1914
▁music	-1915
▁chawla	-1916
▁forest	-1917
amma	-1918
▁wal	-1919
▁cash	-1920
▁print	-1921
▁mr	-1922
▁shuk	-1923
▁deliv	-1924
▁shopping	-1925
ex	-1926
to	-1927
▁ul	-1928
land	-1929
▁pon	-1930
▁kend	-1931
▁ober	-1932
▁shar	-1933
▁little	-1934
▁agr	-1935
lant	-1936
ankara	-1937
▁colony	-1938
▁tailors	-1939
▁dix	-1940
hya	-1941
ual	-1942
▁dri	-1943
▁development	-1944
oda	-1945
▁en	-1946
▁wed	-1947
▁yoga	-1948
▁friend	-1949
▁shr	-1950
athur	-1951
▁dis	-1952
▁dun	-1953
▁fruits	-1954
▁whe	-1955
▁gurudwara	-1956
▁ub	-1957
ayal	-1958
chal	-1959
imal	-1960
▁ard	-1961
▁pen	-1962
allur	-1963
▁jadhav	-1964
hone	-1965
▁apna	-1966
▁game	-1967
▁legal	-1968
▁vegetables	-1969
anad	-1970
▁amar	-1971
▁mutt	-1972
▁tiff	-1973
▁ratho	-1974
tel	-1975
room	-1976
▁head	-1977
▁blood	-1978
▁place	-1979
▁old	-1980
▁pers	-1981
▁campus	-1982
ats	-1983
▁aqu	-1984
▁kud	-1985
▁mast	-1986
▁swim	-1987
▁catho	-1988
▁oberoi	-1989
▁inv	-1990
▁daily	-1991
▁biryani	-1992
has	-1993
ition	-1994
▁workshop	-1995
▁poo	-1996
attuk	-1997
▁vive	-1998
▁raja	-1999
▁fruit	-2000
▁other	-2001
▁footwear	-2002
him	-2003
ifi	-2004
▁vik	-2005
ution	-2006
▁wala	-2007
▁catholic	-2008
gar	-2009
ube	-2010
▁madra	-2011
▁pawar	-2012
▁thiruv	-2013
cks	-2014
lim	-2015
▁saik	-2016
▁ev	-2017
abar	-2018
anya	-2019
avoor	-2020
▁commer	-2021
▁deposit	-2022
▁diagnostics	-2023
pe	-2024
▁work	-2025
▁broad	-2026
▁vaish	-2027
wad	-2028
orat	-2029
▁rat	-2030
▁bhad	-2031
▁mund	-2032
▁dixit	-2033
▁islam	-2034
▁palli	-2035
▁junction	-2036
ie	-2037
ambi	-2038
ility	-2039
▁jewel	-2040
▁garments	-2041
zh	-2042
▁vir	-2043
▁siva	-2044
▁sarasw	-2045
▁muk	-2046
▁not	-2047
▁rap	-2048
▁bsnl	-2049
▁dream	-2050
▁amazon	-2051
▁shetty	-2052
amba	-2053
▁trust	-2054
pr	-2055
▁sav	-2056
▁patt	-2057
ere	-2058
ord	-2059
upa	-2060
book	-2061
▁pizza	-2062
▁design	-2063
▁stationary	-2064
chan	-2065
▁law	-2066
▁gill	-2067
charge	-2068
▁original	-2069
ems	-2070
yil	-2071
▁tw	-2072
▁aud	-2073
▁sky	-2074
▁agric	-2075
▁krish	-2076
▁swimming	-2077
▁transport	-2078
▁rag	-2079
▁meena	-2080
▁poddar	-2081
▁caterers	-2082
rak	-2083
ings	-2084
▁mahar	-2085
▁grewal	-2086
▁delivery	-2087
eum	-2088
aidu	-2089
inde	-2090
▁mam	-2091
▁mid	-2092
▁thal	-2093
jar	-2094
▁hp	-2095
halli	-2096
▁cosm	-2097
▁rama	-2098
▁dubey	-2099
▁shukla	-2100
anna	-2101
▁hon	-2102
agiri	-2103
▁paul	-2104
▁shek	-2105
ble	-2106
▁bap	-2107
arika	-2108
▁area	-2109
▁fiber	-2110
yap	-2111
arsh	-2112
▁don	-2113
▁mom	-2114
▁pil	-2115
alist	-2116
▁asho	-2117
▁fort	-2118
arth	-2119
ksha	-2120
rian	-2121
▁deg	-2122
▁kon	-2123
▁mel	-2124
▁ashram	-2125
bh	-2126
▁apple	-2127
▁surya	-2128
▁expert	-2129
▁fuel	-2130
itable	-2131
▁ganap	-2132
▁grill	-2133
▁kadam	-2134
▁bangal	-2135
para	-2136
▁sax	-2137
▁prak	-2138
clinic	-2139
▁kovil	-2140
▁motor	-2141
▁tyres	-2142
▁automobiles	-2143
▁soc	-2144
▁tap	-2145
▁exch	-2146
▁naidu	-2147
▁agricult	-2148
hon	-2149
▁heg	-2150
▁nil	-2151
▁cook	-2152
▁amman	-2153
▁kurup	-2154
▁proper	-2155
▁vision	-2156
hara	-2157
▁rathore	-2158
tra	-2159
▁kas	-2160
ancer	-2161
▁books	-2162
▁dhill	-2163
▁enterprise	-2164
▁pn	-2165
▁one	-2166
▁kund	-2167
▁cross	-2168
▁cas	-2169
▁smi	-2170
▁bora	-2171
▁burg	-2172
▁watch	-2173
hor	-2174
▁ath	-2175
▁darbar	-2176
ites	-2177
▁agg	-2178
▁tam	-2179
▁ter	-2180
▁meals	-2181
▁chapel	-2182
▁provis	-2183
▁shinde	-2184
attu	-2185
▁best	-2186
▁kutt	-2187
▁study	-2188
▁chauhan	-2189
atri	-2190
▁orthodox	-2191
amy	-2192
wood	-2193
▁dham	-2194
▁kand	-2195
ulation	-2196
▁bedi	-2197
▁saikia	-2198
▁silver	-2199
▁petroleum	-2200
ep	-2201
▁bang	-2202
▁spec	-2203
▁implant	-2204
▁wedding	-2205
▁showroom	-2206
ide	-2207
adam	-2208
▁chow	-2209
▁white	-2210
▁bangalore	-2211
eda	-2212
▁goel	-2213
▁pack	-2214
amangalam	-2215
ship	-2216
▁maj	-2217
▁muth	-2218
▁style	-2219
ki	-2220
ious	-2221
mart	-2222
▁vall	-2223
▁bhatt	-2224
▁sethi	-2225
do	-2226
go	-2227
eya	-2228
▁ki	-2229
▁sb	-2230
▁supply	-2231
▁polyclinic	-2232
ote	-2233
ukan	-2234
▁kat	-2235
▁tar	-2236
▁vaz	-2237
▁batra	-2238
▁hegde	-2239
▁kalan	-2240
ulangara	-2241
▁nursery	-2242
iti	-2243
ense	-2244
shan	-2245
▁ari	-2246
▁cb	-2247
▁pt	-2248
▁sch	-2249
▁matt	-2250
▁dhillon	-2251
▁opticals	-2252
pu	-2253
itra	-2254
▁madh	-2255
▁toll	-2256
▁matriculation	-2257
aga	-2258
orn	-2259
ull	-2260
▁csi	-2261
▁who	-2262
▁doctor	-2263
▁mantri	-2264
▁khandel	-2265
erry	-2266
▁free	-2267
▁mother	-2268
▁saxena	-2269
▁special	-2270
▁exchange	-2271
eld	-2272
eta	-2273
ima	-2274
▁tu	-2275
▁va	-2276
▁sea	-2277
ories	-2278
▁spot	-2279
▁found	-2280
▁degree	-2281
▁krishi	-2282
▁can	-2283
▁pas	-2284
▁cott	-2285
▁ther	-2286
▁parad	-2287
▁communication	-2288
▁kor	-2289
▁sriniv	-2290
▁aggarwal	-2291
▁charitable	-2292
▁wash	-2293
▁quick	-2294
▁saraf	-2295
▁shyam	-2296
▁laborat	-2297
ket	-2298
▁lap	-2299
▁voc	-2300
▁airtel	-2301
▁sandhu	-2302
▁regional	-2303
be	-2304
uka	-2305
▁dth	-2306
iness	-2307
▁micro	-2308
▁panch	-2309
▁trading	-2310
▁coaching	-2311
isha	-2312
▁pip	-2313
▁ren	-2314
uro	-2315
light	-2316
▁snacks	-2317
ave	-2318
ript	-2319
▁nal	-2320
▁tree	-2321
▁wine	-2322
▁month	-2323
▁homeopathic	-2324
aba	-2325
▁veer	-2326
▁mandi	-2327
▁khanna	-2328
▁anganwadi	-2329
▁ep	-2330
▁katt	-2331
▁sales	-2332
▁vishnu	-2333
cc	-2334
dit	-2335
▁rev	-2336
▁cake	-2337
▁welf	-2338
▁varma	-2339
umal	-2340
ethram	-2341
▁access	-2342
▁cham	-2343
▁paint	-2344
▁collections	-2345
avadi	-2346
▁soft	-2347
▁sanjee	-2348
▁narayan	-2349
hic	-2350
▁ut	-2351
hana	-2352
indra	-2353
▁mann	-2354
▁rang	-2355
▁swig	-2356
▁dunzo	-2357
▁mohan	-2358
▁karupp	-2359
▁welfare	-2360
hoor	-2361
▁act	-2362
▁mahav	-2363
▁wheel	-2364
alla	-2365
paid	-2366
▁natural	-2367
▁tripathi	-2368
▁foundation	-2369
▁ast	-2370
▁ras	-2371
icker	-2372
▁fund	-2373
▁kart	-2374
▁invest	-2375
▁trauma	-2376
▁electricity	-2377
nic	-2378
rier	-2379
▁she	-2380
▁sare	-2381
▁social	-2382
▁guesthouse	-2383
▁dog	-2384
▁geet	-2385
▁gover	-2386
▁radha	-2387
▁khandelwal	-2388
ool	-2389
▁gul	-2390
▁sir	-2391
▁meen	-2392
▁malabar	-2393
▁sv	-2394
andi	-2395
chin	-2396
▁kes	-2397
▁cancer	-2398
yas	-2399
cture	-2400
▁gopal	-2401
▁wellness	-2402
▁uda	-2403
▁chat	-2404
rs	-2405
inar	-2406
onam	-2407
unda	-2408
▁honda	-2409
▁maruti	-2410
▁personal	-2411
▁educational	-2412
aff	-2413
▁aad	-2414
▁dum	-2415
▁diam	-2416
▁reli	-2417
▁vocational	-2418
▁dw	-2419
gori	-2420
ling	-2421
▁nrhm	-2422
▁meter	-2423
▁flower	-2424
▁hazarika	-2425
▁hom	-2426
odaya	-2427
▁brew	-2428
▁bakes	-2429
▁photo	-2430
sk	-2431
amk	-2432
mer	-2433
ont	-2434
hott	-2435
▁nai	-2436
▁laser	-2437
▁lodha	-2438
▁nambi	-2439
sr	-2440
uns	-2441
▁gay	-2442
▁liv	-2443
▁rad	-2444
itage	-2445
alloor	-2446
▁tailoring	-2447
▁laboratory	-2448
igu	-2449
▁eg	-2450
▁open	-2451
▁shankar	-2452
▁puri	-2453
▁roll	-2454
▁walia	-2455
▁business	-2456
▁ig	-2457
▁kut	-2458
▁dosa	-2459
▁charg	-2460
▁taluk	-2461
▁chemist	-2462
bs	-2463
rah	-2464
rop	-2465
araja	-2466
▁barua	-2467
▁rapid	-2468
▁je	-2469
▁som	-2470
chery	-2471
▁body	-2472
▁chik	-2473
▁dire	-2474
▁tourist	-2475
nd	-2476
lid	-2477
▁est	-2478
▁paz	-2479
alaya	-2480
hawat	-2481
▁produ	-2482
ter	-2483
athu	-2484
▁lot	-2485
akshi	-2486
▁fert	-2487
▁main	-2488
school	-2489
erji	-2490
▁bai	-2491
▁hut	-2492
▁sem	-2493
inder	-2494
▁arch	-2495
▁biri	-2496
ralaya	-2497
▁cable	-2498
▁recharge	-2499
unn	-2500
yad	-2501
▁ce	-2502
▁alp	-2503
athil	-2504
inagar	-2505
▁jyoti	-2506
▁heritage	-2507
▁goverment	-2508
ts	-2509
red	-2510
gram	-2511
▁groc	-2512
▁stor	-2513
▁gents	-2514
▁smile	-2515
▁syrian	-2516
▁wholes	-2517
▁mahadeva	-2518
ring	-2519
▁dal	-2520
▁sup	-2521
▁pure	-2522
▁theater	-2523
bay	-2524
dge	-2525
erse	-2526
▁ola	-2527
thers	-2528
▁arul	-2529
▁lady	-2530
▁prad	-2531
▁steel	-2532
▁cosmet	-2533
▁diamond	-2534
▁vinayak	-2535
▁warrier	-2536
▁commerce	-2537
▁karuppan	-2538
ef	-2539
▁ned	-2540
astha	-2541
▁proj	-2542
▁silks	-2543
▁fabric	-2544
inj	-2545
▁max	-2546
▁mir	-2547
▁mis	-2548
▁chetia	-2549
▁swiggy	-2550
dl	-2551
lee	-2552
inese	-2553
▁cust	-2554
ialist	-2555
une	-2556
▁zo	-2557
▁syst	-2558
ations	-2559
▁monthly	-2560
▁nambiar	-2561
▁vivekan	-2562
▁vinayaka	-2563
ray	-2564
▁zom	-2565
eries	-2566
▁appli	-2567
▁party	-2568
▁womens	-2569
pi	-2570
mar	-2571
nan	-2572
oti	-2573
▁pi	-2574
▁rel	-2575
▁vehic	-2576
▁valley	-2577
nat	-2578
▁mg	-2579
isex	-2580
▁cir	-2581
amman	-2582
▁make	-2583
▁param	-2584
▁broadband	-2585
▁healthcare	-2586
hs	-2587
ns	-2588
▁utt	-2589
▁bath	-2590
▁perf	-2591
▁unisex	-2592
▁computers	-2593
▁vr	-2594
ania	-2595
hakk	-2596
ikar	-2597
▁ply	-2598
▁mach	-2599
▁mark	-2600
▁with	-2601
▁tanwar	-2602
gam	-2603
mala	-2604
▁arun	-2605
▁bake	-2606
▁cycle	-2607
▁paper	-2608
▁venkates	-2609
▁operative	-2610
▁gm	-2611
erox	-2612
▁sto	-2613
▁taj	-2614
▁prof	-2615
▁audit	-2616
▁craft	-2617
▁garage	-2618
▁prakash	-2619
▁paradise	-2620
nur	-2621
tif	-2622
▁iti	-2623
▁lens	-2624
▁wifi	-2625
akkara	-2626
▁solar	-2627
hiy	-2628
▁cr	-2629
▁ham	-2630
▁rec	-2631
▁vada	-2632
▁kshethram	-2633
wn	-2634
yn	-2635
▁aw	-2636
▁fre	-2637
▁ward	-2638
▁divis	-2639
▁biriyani	-2640
▁10	-2641
▁tip	-2642
anpur	-2643
ariya	-2644
havan	-2645
▁beer	-2646
▁mass	-2647
▁glass	-2648
▁battery	-2649
ca	-2650
lal	-2651
rad	-2652
▁fr	-2653
▁sl	-2654
anti	-2655
▁bat	-2656
▁ris	-2657
▁sum	-2658
▁arya	-2659
▁xerox	-2660
▁master	-2661
▁medicine	-2662
var	-2663
▁ks	-2664
eria	-2665
onda	-2666
umber	-2667
erseas	-2668
▁ayush	-2669
▁ganga	-2670
▁credit	-2671
▁product	-2672
▁shekhawat	-2673
ica	-2674
▁bij	-2675
▁dho	-2676
▁ped	-2677
▁kail	-2678
▁prem	-2679
asthan	-2680
▁panicker	-2681
▁homeopathy	-2682
▁venkateshwara	-2683
wd	-2684
ole	-2685
ras	-2686
ogya	-2687
utta	-2688
▁fro	-2689
▁sap	-2690
▁tut	-2691
▁fire	-2692
▁rani	-2693
▁tast	-2694
▁small	-2695
▁phukan	-2696
▁classes	-2697
gah	-2698
▁ke	-2699
aria	-2700
illy	-2701
▁ved	-2702
▁lake	-2703
▁nell	-2704
▁read	-2705
▁penal	-2706
▁counter	-2707
tm	-2708
rib	-2709
unk	-2710
▁annu	-2711
▁moon	-2712
▁neel	-2713
▁assist	-2714
▁project	-2715
▁section	-2716
by	-2717
cs	-2718
thal	-2719
kshaw	-2720
▁sank	-2721
▁uphc	-2722
eswara	-2723
ppy	-2724
▁md	-2725
▁aar	-2726
▁kiz	-2727
▁lak	-2728
adavu	-2729
▁chal	-2730
▁spice	-2731
▁tours	-2732
xy	-2733
ict	-2734
▁ai	-2735
▁sd	-2736
uzhi	-2737
vadi	-2738
▁amd	-2739
▁lok	-2740
▁ser	-2741
▁diab	-2742
▁hyper	-2743
▁custom	-2744
▁specialist	-2745
eena	-2746
▁bor	-2747
▁mud	-2748
▁roh	-2749
attom	-2750
icate	-2751
pally	-2752
▁kada	-2753
▁real	-2754
▁vari	-2755
ential	-2756
fli	-2757
umar	-2758
wati	-2759
▁hous	-2760
▁mahi	-2761
▁noor	-2762
▁ravi	-2763
▁pooja	-2764
ci	-2765
▁ob	-2766
▁bul	-2767
▁rah	-2768
▁ener	-2769
▁radi	-2770
▁sarv	-2771
script	-2772
▁overseas	-2773
illa	-2774
▁jour	-2775
krishna	-2776
▁interi	-2777
▁wholesale	-2778
▁mor	-2779
inath	-2780
▁tand	-2781
▁taxi	-2782
▁raman	-2783
▁brothers	-2784
▁catering	-2785
bad	-2786
tha	-2787
liday	-2788
quare	-2789
▁fact	-2790
▁prin	-2791
avathi	-2792
eswarar	-2793
▁diabet	-2794
▁holiday	-2795
▁cleaning	-2796
ims	-2797
rav	-2798
▁bk	-2799
angad	-2800
▁fair	-2801
▁jaco	-2802
▁pani	-2803
▁mount	-2804
▁organ	-2805
▁sahak	-2806
▁stamp	-2807
▁stone	-2808
appuram	-2809
itation	-2810
▁sector	-2811
▁internet	-2812
▁anganavadi	-2813
dhar	-2814
itya	-2815
▁gho	-2816
▁hel	-2817
▁khur	-2818
▁plus	-2819
▁rice	-2820
▁cinem	-2821
▁filing	-2822
akrishna	-2823
▁provision	-2824
oj	-2825
ces	-2826
cho	-2827
con	-2828
akal	-2829
▁hyd	-2830
akara	-2831
▁veng	-2832
▁vihar	-2833
▁bombay	-2834
▁flight	-2835
▁industries	-2836
ose	-2837
seb	-2838
▁sg	-2839
▁nut	-2840
▁pass	-2841
alaxmi	-2842
▁raghav	-2843
▁assistant	-2844
dp	-2845
thy	-2846
▁vett	-2847
aramba	-2848
▁dwark	-2849
▁shanti	-2850
mp	-2851
ze	-2852
eds	-2853
upi	-2854
▁we	-2855
▁jud	-2856
wares	-2857
▁thekk	-2858
▁wines	-2859
▁prepaid	-2860
uki	-2861
▁od	-2862
giri	-2863
▁arab	-2864
▁ashok	-2865
▁factory	-2866
agh	-2867
mad	-2868
▁hs	-2869
▁mp	-2870
▁rt	-2871
▁rak	-2872
▁sent	-2873
▁shub	-2874
▁vali	-2875
iketan	-2876
▁kshet	-2877
▁press	-2878
▁zomato	-2879
▁maharaj	-2880
res	-2881
▁rs	-2882
indi	-2883
▁mum	-2884
▁nay	-2885
▁goog	-2886
▁journal	-2887
arda	-2888
iram	-2889
wali	-2890
▁fra	-2891
▁lic	-2892
arning	-2893
▁shakti	-2894
osh	-2895
stic	-2896
▁suppli	-2897
edu	-2898
▁mm	-2899
asam	-2900
atric	-2901
▁past	-2902
▁sath	-2903
▁jacob	-2904
▁srinivasa	-2905
▁vegetable	-2906
▁ns	-2907
▁ary	-2908
▁stu	-2909
▁stitch	-2910
▁software	-2911
▁dd	-2912
▁hr	-2913
▁vo	-2914
utha	-2915
work	-2916
▁ank	-2917
▁sah	-2918
▁chait	-2919
▁annual	-2920
▁burger	-2921
▁restro	-2922
▁grocery	-2923
wat	-2924
▁tul	-2925
▁curr	-2926
▁indira	-2927
▁tiffin	-2928
▁registration	-2929
▁venkateswara	-2930
met	-2931
zed	-2932
bari	-2933
flix	-2934
▁gom	-2935
▁kab	-2936
▁pai	-2937
▁rem	-2938
▁kamal	-2939
▁accessories	-2940
fe	-2941
je	-2942
ero	-2943
ino	-2944
son	-2945
lesh	-2946
▁sul	-2947
field	-2948
▁coll	-2949
▁kseb	-2950
▁bhagavathy	-2951
col	-2952
mel	-2953
▁rd	-2954
▁dam	-2955
▁dem	-2956
▁por	-2957
umala	-2958
▁khar	-2959
▁koth	-2960
akulam	-2961
▁vikas	-2962
▁govind	-2963
▁police	-2964
▁property	-2965
eck	-2966
▁24	-2967
ator	-2968
▁clo	-2969
▁moh	-2970
chant	-2971
▁dent	-2972
illing	-2973
▁happy	-2974
▁dharam	-2975
evi	-2976
odi	-2977
▁jh	-2978
▁eat	-2979
apura	-2980
chand	-2981
▁dish	-2982
▁duty	-2983
▁maint	-2984
▁momos	-2985
▁et	-2986
▁rc	-2987
▁vy	-2988
▁rav	-2989
▁gate	-2990
▁paris	-2991
▁energy	-2992
▁classic	-2993
▁telecom	-2994
ime	-2995
ona	-2996
pat	-2997
aran	-2998
ogra	-2999
▁seb	-3000
▁data	-3001
▁neuro	-3002
sta	-3003
amal	-3004
▁our	-3005
eling	-3006
ocker	-3007
▁shre	-3008
▁arulm	-3009
▁mater	-3010
▁antony	-3011
▁kalyan	-3012
▁coolbar	-3013
▁student	-3014
oni	-3015
▁ah	-3016
kart	-3017
well	-3018
▁rub	-3019
▁chaat	-3020
▁chips	-3021
▁udupi	-3022
appally	-3023
▁animal	-3024
▁parlor	-3025
▁sangam	-3026
▁square	-3027
▁penalty	-3028
▁profess	-3029
kha	-3030
min	-3031
rang	-3032
▁bed	-3033
▁egg	-3034
▁jes	-3035
▁wel	-3036
▁sher	-3037
▁marys	-3038
▁phone	-3039
▁secur	-3040
▁share	-3041
▁clothing	-3042
top	-3043
▁mn	-3044
▁ny	-3045
ishnu	-3046
▁uber	-3047
▁anjan	-3048
▁flour	-3049
ene	-3050
▁km	-3051
▁ts	-3052
ayur	-3053
idhi	-3054
▁cat	-3055
▁kai	-3056
▁lko	-3057
▁mav	-3058
▁ric	-3059
▁tod	-3060
▁gala	-3061
▁talk	-3062
▁priya	-3063
▁karnat	-3064
▁shrine	-3065
▁vehicle	-3066
appan	-3067
▁movi	-3068
▁hospt	-3069
▁sadan	-3070
▁cinemas	-3071
ithi	-3072
▁amm	-3073
▁der	-3074
▁emi	-3075
▁pres	-3076
▁push	-3077
▁send	-3078
▁birth	-3079
▁jyothi	-3080
rtc	-3081
uva	-3082
▁rk	-3083
puri	-3084
avana	-3085
eswari	-3086
▁naras	-3087
▁siddha	-3088
▁siddhi	-3089
▁bhavani	-3090
▁arulmigu	-3091
asy	-3092
esa	-3093
ici	-3094
icy	-3095
mat	-3096
aman	-3097
▁aro	-3098
▁bet	-3099
▁gad	-3100
▁kak	-3101
▁pak	-3102
▁roo	-3103
▁acco	-3104
▁asha	-3105
▁parv	-3106
▁sans	-3107
angadi	-3108
▁daksh	-3109
▁hills	-3110
▁stora	-3111
▁shivam	-3112
▁booking	-3113
▁filling	-3114
▁stitching	-3115
nar	-3116
anka	-3117
cket	-3118
kkal	-3119
dwara	-3120
▁liqu	-3121
▁time	-3122
▁vand	-3123
▁quart	-3124
▁google	-3125
▁friends	-3126
▁regular	-3127
eg	-3128
vin	-3129
▁nig	-3130
▁noi	-3131
▁amma	-3132
▁cutt	-3133
▁film	-3134
▁nath	-3135
▁unani	-3136
▁rapido	-3137
eop	-3138
rum	-3139
uni	-3140
▁dad	-3141
▁kri	-3142
▁sbi	-3143
▁nanak	-3144
▁swast	-3145
▁salary	-3146
▁netflix	-3147
▁hardwares	-3148
▁karnataka	-3149
eva	-3150
▁tat	-3151
owers	-3152
▁guruk	-3153
▁marri	-3154
▁tiles	-3155
▁union	-3156
▁choice	-3157
▁martho	-3158
▁highway	-3159
▁kendriya	-3160
phy	-3161
▁ek	-3162
▁sin	-3163
▁vit	-3164
▁ghar	-3165
▁fathi	-3166
▁return	-3167
▁bharath	-3168
▁chinese	-3169
▁plywood	-3170
▁merchant	-3171
▁agricultural	-3172
ayi	-3173
ese	-3174
▁iv	-3175
▁iy	-3176
inks	-3177
star	-3178
▁nss	-3179
▁saw	-3180
▁spl	-3181
▁tel	-3182
alpur	-3183
itary	-3184
▁port	-3185
▁vast	-3186
▁emplo	-3187
gd	-3188
▁cru	-3189
▁sne	-3190
▁ups	-3191
▁cold	-3192
▁fran	-3193
▁muru	-3194
▁himal	-3195
▁stand	-3196
▁sugar	-3197
▁number	-3198
akam	-3199
▁bah	-3200
▁end	-3201
▁ide	-3202
▁jum	-3203
▁kho	-3204
ances	-3205
anthi	-3206
isine	-3207
vance	-3208
▁rose	-3209
▁shoe	-3210
▁tower	-3211
alakshmi	-3212
▁dom	-3213
▁ext	-3214
▁gaj	-3215
▁flag	-3216
▁flip	-3217
▁giri	-3218
▁kakk	-3219
▁fuels	-3220
▁sebast	-3221
au	-3222
bu	-3223
uss	-3224
ival	-3225
▁hss	-3226
▁neh	-3227
▁alum	-3228
▁chit	-3229
▁thar	-3230
▁aditya	-3231
▁certif	-3232
▁gaming	-3233
▁subram	-3234
▁gurdwara	-3235
▁marthoma	-3236
▁fertility	-3237
oy	-3238
▁kl	-3239
▁mt	-3240
tist	-3241
▁ach	-3242
▁ben	-3243
▁mai	-3244
▁sit	-3245
▁suz	-3246
▁babu	-3247
▁depot	-3248
▁jeevan	-3249
▁foreign	-3250
▁systems	-3251
▁ii	-3252
▁wa	-3253
noor	-3254
uchi	-3255
▁bil	-3256
arium	-3257
▁agar	-3258
▁yash	-3259
▁loans	-3260
▁andhra	-3261
scription	-3262
▁material	-3263
▁medicare	-3264
out	-3265
▁pc	-3266
kara	-3267
▁pop	-3268
▁rud	-3269
▁kavu	-3270
▁puja	-3271
▁shal	-3272
▁spir	-3273
arambu	-3274
▁movie	-3275
▁dharma	-3276
▁restur	-3277
▁homoeop	-3278
▁anganvadi	-3279
aki	-3280
▁12	-3281
▁abhi	-3282
▁gaur	-3283
▁koil	-3284
▁pick	-3285
▁self	-3286
▁vatt	-3287
▁yout	-3288
athara	-3289
ection	-3290
▁gujar	-3291
▁laund	-3292
▁galaxy	-3293
▁hazrat	-3294
▁jacobite	-3295
▁ramakrishna	-3296
ace	-3297
ugh	-3298
▁cu	-3299
▁arc	-3300
▁dav	-3301
▁dha	-3302
ickal	-3303
▁sind	-3304
▁than	-3305
▁flagship	-3306
▁security	-3307
box	-3308
emb	-3309
par	-3310
urga	-3311
▁bell	-3312
▁bphc	-3313
▁kala	-3314
▁kunj	-3315
▁joint	-3316
▁kiran	-3317
▁thott	-3318
▁excise	-3319
▁import	-3320
▁muslim	-3321
▁baptist	-3322
▁organic	-3323
▁boarding	-3324
▁residential	-3325
dal	-3326
rip	-3327
ssur	-3328
tain	-3329
▁door	-3330
▁gran	-3331
▁refer	-3332
▁cutting	-3333
▁storage	-3334
▁wheeler	-3335
▁fashions	-3336
▁reliance	-3337
▁appliances	-3338
▁kn	-3339
▁srv	-3340
▁back	-3341
▁ball	-3342
▁deal	-3343
▁tool	-3344
enance	-3345
utions	-3346
▁dargah	-3347
bow	-3348
dle	-3349
oot	-3350
yak	-3351
zen	-3352
ages	-3353
akes	-3354
ukku	-3355
▁sac	-3356
agram	-3357
ident	-3358
▁anna	-3359
▁jawa	-3360
▁brahm	-3361
▁arogya	-3362
▁fathima	-3363
▁tuition	-3364
▁director	-3365
▁products	-3366
▁registrar	-3367
lai	-3368
zer	-3369
▁ec	-3370
▁ku	-3371
ckal	-3372
▁inc	-3373
annur	-3374
uruth	-3375
▁chil	-3376
▁cure	-3377
▁drive	-3378
▁adarsh	-3379
▁pot	-3380
arant	-3381
▁corn	-3382
▁jama	-3383
▁ragh	-3384
anagar	-3385
apuzha	-3386
▁draft	-3387
▁jesus	-3388
▁nehru	-3389
▁tamil	-3390
▁tirup	-3391
▁treat	-3392
▁suzuki	-3393
▁account	-3394
▁advance	-3395
▁vinayagar	-3396
agi	-3397
rim	-3398
▁kv	-3399
eral	-3400
esha	-3401
▁dra	-3402
▁ess	-3403
▁cars	-3404
▁stoer	-3405
▁saraswati	-3406
ili	-3407
arti	-3408
assi	-3409
hani	-3410
ikkal	-3411
warya	-3412
▁aksha	-3413
▁kapur	-3414
▁satya	-3415
▁steam	-3416
▁ayyappa	-3417
▁hindust	-3418
▁aquarium	-3419
▁marketing	-3420
▁electronic	-3421
pm	-3422
udy	-3423
eeth	-3424
▁suk	-3425
▁kanj	-3426
▁chitt	-3427
▁expense	-3428
▁maharash	-3429
opy	-3430
▁kis	-3431
▁map	-3432
▁pnq	-3433
▁que	-3434
▁roy	-3435
▁two	-3436
ather	-3437
eller	-3438
▁gola	-3439
▁mull	-3440
▁prab	-3441
▁shir	-3442
▁decor	-3443
station	-3444
▁living	-3445
▁maruthi	-3446
▁massage	-3447
▁thrissur	-3448
▁industrial	-3449
bb	-3450
ayar	-3451
pati	-3452
rise	-3453
▁ori	-3454
▁ray	-3455
▁phil	-3456
▁cloud	-3457
▁video	-3458
▁hotell	-3459
▁liquor	-3460
▁pocket	-3461
▁wallet	-3462
▁akshaya	-3463
▁annapur	-3464
00	-3465
▁nm	-3466
akad	-3467
enue	-3468
ollo	-3469
ovil	-3470
▁bhi	-3471
▁bid	-3472
apara	-3473
chira	-3474
ungal	-3475
▁bara	-3476
▁drug	-3477
ension	-3478
▁chapp	-3479
▁dharm	-3480
▁kathi	-3481
▁offic	-3482
ography	-3483
▁carmel	-3484
▁prince	-3485
▁perumal	-3486
▁christian	-3487
fl	-3488
avil	-3489
▁nik	-3490
inity	-3491
▁nest	-3492
▁pran	-3493
apalli	-3494
▁jamia	-3495
▁estate	-3496
▁middle	-3497
▁punjabi	-3498
▁studies	-3499
▁currency	-3500
▁mahavishnu	-3501
hip	-3502
oom	-3503
▁bee	-3504
▁fib	-3505
▁tur	-3506
akkam	-3507
arian	-3508
athan	-3509
▁hotl	-3510
▁padm	-3511
▁sham	-3512
▁wrap	-3513
▁xavi	-3514
apally	-3515
▁parts	-3516
▁rental	-3517
▁sanjay	-3518
▁vidyal	-3519
kaa	-3520
ogy	-3521
ron	-3522
▁ax	-3523
▁bn	-3524
imha	-3525
irav	-3526
umba	-3527
▁bla	-3528
▁gud	-3529
▁tvs	-3530
▁bhel	-3531
▁mist	-3532
▁mont	-3533
▁sark	-3534
▁krupa	-3535
▁trend	-3536
▁makeup	-3537
▁jawahar	-3538
▁raghavendra	-3539
▁vivekananda	-3540
apa	-3541
ule	-3542
▁bb	-3543
come	-3544
veli	-3545
▁dol	-3546
▁nim	-3547
shala	-3548
▁beth	-3549
▁chel	-3550
▁link	-3551
▁peri	-3552
▁pull	-3553
▁shan	-3554
▁lucky	-3555
ikethan	-3556
▁kidney	-3557
▁krishn	-3558
▁united	-3559
▁ganapathi	-3560
▁resturant	-3561
11	-3562
▁ez	-3563
azar	-3564
stha	-3565
▁sel	-3566
aling	-3567
▁cabs	-3568
▁sard	-3569
ny	-3570
cles	-3571
hiya	-3572
▁niv	-3573
▁uni	-3574
aniya	-3575
▁chen	-3576
▁durg	-3577
▁rain	-3578
▁vidh	-3579
ikulam	-3580
▁asian	-3581
▁fried	-3582
▁siddh	-3583
▁control	-3584
▁auditorium	-3585
yur	-3586
▁ib	-3587
▁kk	-3588
▁eth	-3589
▁koz	-3590
▁lad	-3591
▁bhav	-3592
▁cric	-3593
▁kash	-3594
▁rock	-3595
▁ambal	-3596
▁chowk	-3597
ologist	-3598
▁cleaners	-3599
▁kshetram	-3600
jj	-3601
hin	-3602
atin	-3603
inda	-3604
▁lps	-3605
▁pud	-3606
▁sip	-3607
unnam	-3608
▁neet	-3609
▁tatt	-3610
hority	-3611
▁vadakk	-3612
▁gayatri	-3613
▁mahindra	-3614
▁printing	-3615
▁commission	-3616
▁ct	-3617
ecut	-3618
haya	-3619
shop	-3620
▁esp	-3621
▁gen	-3622
▁way	-3623
▁kunn	-3624
▁pear	-3625
▁stra	-3626
▁cover	-3627
▁manik	-3628
▁resto	-3629
▁spine	-3630
▁paints	-3631
gs	-3632
▁mb	-3633
undi	-3634
▁fac	-3635
▁puz	-3636
▁vol	-3637
▁bagh	-3638
▁namk	-3639
▁thai	-3640
▁dwarka	-3641
▁kailash	-3642
▁kendram	-3643
▁surgery	-3644
▁association	-3645
▁af	-3646
▁ds	-3647
▁fe	-3648
haar	-3649
reen	-3650
veer	-3651
▁jas	-3652
ingal	-3653
▁prat	-3654
anjali	-3655
▁night	-3656
▁dining	-3657
▁chaitanya	-3658
▁mahalaxmi	-3659
▁maintenance	-3660
cis	-3661
ler	-3662
ball	-3663
phone	-3664
▁cand	-3665
▁karun	-3666
▁apollo	-3667
▁cheque	-3668
▁jewelry	-3669
▁regency	-3670
▁authority	-3671
eez	-3672
omm	-3673
osc	-3674
▁nc	-3675
▁chn	-3676
otech	-3677
rapur	-3678
▁cult	-3679
▁tham	-3680
appara	-3681
▁centr	-3682
▁plant	-3683
▁tools	-3684
ecutive	-3685
▁sacred	-3686
ediatric	-3687
▁housing	-3688
▁youtube	-3689
kul	-3690
mon	-3691
angi	-3692
ayak	-3693
hold	-3694
rens	-3695
stal	-3696
▁ber	-3697
▁gop	-3698
▁cell	-3699
▁scan	-3700
▁grace	-3701
▁kulfi	-3702
▁lotus	-3703
▁range	-3704
▁river	-3705
▁sound	-3706
▁masala	-3707
ksh	-3708
▁mk	-3709
ushi	-3710
vara	-3711
▁athi	-3712
▁full	-3713
▁live	-3714
▁visa	-3715
athoor	-3716
▁forex	-3717
▁laundry	-3718
▁executive	-3719
sw	-3720
oss	-3721
▁cd	-3722
▁jr	-3723
quet	-3724
tech	-3725
▁psy	-3726
▁dome	-3727
▁iron	-3728
▁kalp	-3729
▁samb	-3730
▁check	-3731
▁supplies	-3732
▁orthodont	-3733
▁technical	-3734
fit	-3735
oria	-3736
tail	-3737
vers	-3738
unath	-3739
▁bari	-3740
▁ghat	-3741
▁chira	-3742
▁media	-3743
▁namma	-3744
▁relig	-3745
▁buddha	-3746
▁madrasa	-3747
▁optical	-3748
▁sanjeevani	-3749
oh	-3750
ire	-3751
arak	-3752
hava	-3753
kkad	-3754
than	-3755
▁kos	-3756
▁sik	-3757
andir	-3758
attup	-3759
undai	-3760
▁aksh	-3761
▁ling	-3762
▁prag	-3763
▁tara	-3764
▁khurd	-3765
▁advent	-3766
▁monast	-3767
▁maharaja	-3768
▁childrens	-3769
guru	-3770
▁fed	-3771
▁gow	-3772
▁tib	-3773
arpur	-3774
▁agro	-3775
▁bhai	-3776
▁cast	-3777
▁kond	-3778
▁meat	-3779
ikkara	-3780
▁allow	-3781
▁bikan	-3782
▁hindu	-3783
▁readym	-3784
▁birthday	-3785
▁diabetes	-3786
hur	-3787
▁cs	-3788
oori	-3789
▁ger	-3790
edkar	-3791
rance	-3792
▁bhan	-3793
▁bone	-3794
▁comf	-3795
▁koch	-3796
▁mira	-3797
▁text	-3798
▁triv	-3799
▁cyber	-3800
▁puthi	-3801
▁chocol	-3802
▁hotels	-3803
▁distrib	-3804
▁flipkart	-3805
mr	-3806
rd	-3807
uj	-3808
hag	-3809
hia	-3810
atma	-3811
cuit	-3812
kari	-3813
▁dab	-3814
▁viv	-3815
▁wad	-3816
▁khal	-3817
▁cheng	-3818
▁shoes	-3819
arambil	-3820
▁outlet	-3821
▁division	-3822
▁malankara	-3823
mu	-3824
ase	-3825
pay	-3826
san	-3827
▁11	-3828
adhi	-3829
stru	-3830
▁hem	-3831
▁myl	-3832
▁crit	-3833
▁hero	-3834
▁look	-3835
▁financ	-3836
▁sakthi	-3837
▁gregori	-3838
▁mahavid	-3839
▁niketan	-3840
▁insuranc	-3841
▁annapurna	-3842
ret	-3843
▁cc	-3844
alur	-3845
less	-3846
yoor	-3847
▁hus	-3848
▁joy	-3849
▁kok	-3850
attam	-3851
inium	-3852
▁case	-3853
▁chan	-3854
▁cours	-3855
▁mehta	-3856
▁nigam	-3857
▁sentr	-3858
▁toddy	-3859
▁nature	-3860
▁planet	-3861
▁provid	-3862
▁sanjiv	-3863
attukada	-3864
▁cottage	-3865
▁hindustan	-3866
▁agriculture	-3867
andra	-3868
▁laptop	-3869
▁mahesh	-3870
▁sarees	-3871
▁investments	-3872
▁subscription	-3873
tc	-3874
aik	-3875
bus	-3876
des	-3877
ots	-3878
pan	-3879
▁cp	-3880
apra	-3881
deep	-3882
▁itc	-3883
▁kaj	-3884
▁ott	-3885
▁sew	-3886
adium	-3887
store	-3888
▁fest	-3889
▁sidd	-3890
ashree	-3891
appuzha	-3892
▁frozen	-3893
wc	-3894
atu	-3895
uta	-3896
▁il	-3897
▁jk	-3898
adri	-3899
itta	-3900
oodu	-3901
▁aff	-3902
▁jub	-3903
▁cbse	-3904
▁sala	-3905
▁vign	-3906
▁bread	-3907
▁locker	-3908
▁cricket	-3909
▁murugan	-3910
▁ambedkar	-3911
▁parishad	-3912
▁gs	-3913
▁lu	-3914
agam	-3915
code	-3916
sing	-3917
▁pamp	-3918
ampara	-3919
▁admin	-3920
▁rehab	-3921
▁prasanna	-3922
▁monastery	-3923
▁netralaya	-3924
▁vegetarian	-3925
sy	-3926
dio	-3927
net	-3928
urg	-3929
maya	-3930
▁cry	-3931
▁gig	-3932
▁keb	-3933
▁laz	-3934
▁pwd	-3935
▁aphc	-3936
▁bhoj	-3937
hikode	-3938
▁orchi	-3939
▁peter	-3940
▁pradesh	-3941
▁dl	-3942
▁eb	-3943
▁ya	-3944
avar	-3945
hika	-3946
utty	-3947
ving	-3948
▁bon	-3949
▁jog	-3950
▁put	-3951
▁upi	-3952
▁gast	-3953
▁heav	-3954
▁marg	-3955
▁pain	-3956
▁vaid	-3957
▁aroma	-3958
▁ashir	-3959
▁bhaji	-3960
▁laksh	-3961
▁lassi	-3962
▁moham	-3963
▁teach	-3964
▁bright	-3965
▁godown	-3966
▁inform	-3967
▁suresh	-3968
▁francis	-3969
▁machine	-3970
▁anjaneya	-3971
▁medicose	-3972
▁tutorial	-3973
▁aluminium	-3974
abh	-3975
ues	-3976
ders	-3977
ties	-3978
▁beh	-3979
▁equ	-3980
▁kom	-3981
▁vidhya	-3982
▁samarth	-3983
▁corporate	-3984
▁thattukada	-3985
▁hypermarket	-3986
▁superspeciality	-3987
mb	-3988
wl	-3989
ain	-3990
eem	-3991
ees	-3992
wab	-3993
▁nd	-3994
anki	-3995
mill	-3996
▁cng	-3997
▁cut	-3998
▁nit	-3999
▁mult	-4000
▁brand	-4001
▁dance	-4002
▁split	-4003
▁attest	-4004
▁demand	-4005
▁herbal	-4006
▁vishal	-4007
▁xavier	-4008
anahalli	-4009
▁charges	-4010
▁furnish	-4011
▁hyundai	-4012
▁popular	-4013
▁chatterji	-4014
-1	-4015
dul	-4016
oos	-4017
ope	-4018
vad	-4019
▁gi	-4020
▁kp	-4021
spur	-4022
▁bay	-4023
▁emb	-4024
▁rto	-4025
▁coun	-4026
▁garg	-4027
▁paan	-4028
▁papp	-4029
▁seat	-4030
▁unif	-4031
▁chang	-4032
▁paras	-4033
▁trade	-4034
▁sebastian	-4035
▁departmental	-4036
ars	-4037
umk	-4038
hadi	-4039
▁fle	-4040
▁had	-4041
▁hos	-4042
▁nak	-4043
▁til	-4044
▁yas	-4045
ashun	-4046
atham	-4047
▁rela	-4048
▁saha	-4049
aswamy	-4050
▁bismi	-4051
▁delux	-4052
▁elite	-4053
▁bridge	-4054
▁restra	-4055
▁stadium	-4056
▁saravana	-4057
▁orthopedic	-4058
▁restaurent	-4059
▁orthodontic	-4060
lad	-4061
rao	-4062
tdc	-4063
udd	-4064
▁15	-4065
▁jn	-4066
▁kg	-4067
yana	-4068
▁kit	-4069
▁sud	-4070
▁ult	-4071
anish	-4072
ities	-4073
▁swar	-4074
▁kasar	-4075
▁kripa	-4076
▁madhu	-4077
▁maria	-4078
▁uttar	-4079
▁payyan	-4080
▁clothes	-4081
▁santosh	-4082
idi	-4083
ife	-4084
ulu	-4085
ume	-4086
▁cg	-4087
asan	-4088
reat	-4089
▁cod	-4090
▁ish	-4091
▁mit	-4092
▁rup	-4093
urnce	-4094
▁aman	-4095
▁trav	-4096
▁ideal	-4097
▁drinks	-4098
▁nirmal	-4099
▁vaishn	-4100
▁accident	-4101
▁bharathi	-4102
▁insurnce	-4103
▁mukherji	-4104
▁narasimha	-4105
▁maharashtra	-4106
oz	-4107
uel	-4108
val	-4109
▁ox	-4110
▁pp	-4111
etha	-4112
ovar	-4113
want	-4114
eetha	-4115
▁tank	-4116
▁madhav	-4117
▁vidyan	-4118
▁collage	-4119
▁country	-4120
▁ls	-4121
▁pb	-4122
▁kuk	-4123
warma	-4124
▁anil	-4125
▁kapp	-4126
▁libr	-4127
▁punn	-4128
▁sush	-4129
▁xbox	-4130
aryana	-4131
▁match	-4132
▁rahul	-4133
▁bhadra	-4134
▁ethnic	-4135
▁instant	-4136
eme	-4137
gle	-4138
hod	-4139
unj	-4140
▁gy	-4141
alay	-4142
amin	-4143
▁kin	-4144
artha	-4145
▁mali	-4146
▁cakes	-4147
▁divya	-4148
▁mahan	-4149
▁cement	-4150
▁deepak	-4151
▁sardar	-4152
▁sastha	-4153
▁tribal	-4154
▁learning	-4155
▁rickshaw	-4156
▁sanitary	-4157
▁mahalakshmi	-4158
che	-4159
med	-4160
▁dc	-4161
▁mv	-4162
▁rr	-4163
▁aur	-4164
▁kel	-4165
▁log	-4166
▁insp	-4167
▁kast	-4168
▁sund	-4169
▁vard	-4170
▁couri	-4171
▁geeta	-4172
▁saree	-4173
▁gramin	-4174
▁sample	-4175
▁vidyap	-4176
▁bharati	-4177
▁mahatma	-4178
▁variety	-4179
▁passport	-4180
▁devasthan	-4181
▁restraunt	-4182
▁homoeopathic	-4183
get	-4184
hid	-4185
ton	-4186
▁nh	-4187
cher	-4188
ghat	-4189
inik	-4190
rush	-4191
uvan	-4192
▁adi	-4193
ambur	-4194
apoor	-4195
under	-4196
▁conf	-4197
▁kair	-4198
▁popc	-4199
▁stat	-4200
▁nykaa	-4201
▁unique	-4202
▁namkeen	-4203
▁domestic	-4204
▁solution	-4205
▁furnitures	-4206
ob	-4207
we	-4208
zy	-4209
men	-4210
▁aa	-4211
▁bp	-4212
▁jp	-4213
▁tb	-4214
anur	-4215
arkh	-4216
bind	-4217
bles	-4218
ikki	-4219
juna	-4220
▁kay	-4221
▁tak	-4222
▁tot	-4223
▁wil	-4224
ender	-4225
▁bhak	-4226
▁bist	-4227
▁bunk	-4228
▁casa	-4229
▁jaya	-4230
▁makk	-4231
▁mukk	-4232
▁pent	-4233
▁ponn	-4234
▁sele	-4235
▁tent	-4236
▁angel	-4237
▁indri	-4238
▁stuid	-4239
▁suraj	-4240
▁treas	-4241
anchery	-4242
gorized	-4243
▁consul	-4244
▁employ	-4245
▁mutton	-4246
▁mahavir	-4247
▁rainbow	-4248
▁cosmetics	-4249
▁interiors	-4250
▁kottakkal	-4251
▁meenakshi	-4252
▁telephone	-4253
▁information	-4254
▁professional	-4255
ju	-4256
ke	-4257
ws	-4258
ghs	-4259
gro	-4260
▁bm	-4261
ande	-4262
ftop	-4263
▁aps	-4264
▁vim	-4265
ality	-4266
ellow	-4267
hapur	-4268
▁bags	-4269
▁cath	-4270
▁ecom	-4271
▁pilg	-4272
▁uday	-4273
▁champ	-4274
▁chest	-4275
▁kutti	-4276
▁mutho	-4277
▁paytm	-4278
▁samaj	-4279
▁shine	-4280
▁rajesh	-4281
▁thrikk	-4282
gra	-4283
sti	-4284
ikal	-4285
riti	-4286
▁gat	-4287
▁icu	-4288
▁ner	-4289
▁pic	-4290
▁pim	-4291
andam	-4292
▁ashw	-4293
▁keer	-4294
▁oven	-4295
rakali	-4296
▁autom	-4297
▁black	-4298
▁chett	-4299
▁kalam	-4300
▁kebab	-4301
▁tibet	-4302
▁unlim	-4303
▁cochin	-4304
▁disney	-4305
▁kollam	-4306
▁kudumb	-4307
▁remitt	-4308
▁yogurt	-4309
▁karthik	-4310
▁gurugram	-4311
▁chocolate	-4312
▁palliative	-4313
▁sreekrishna	-4314
shu	-4315
▁14	-4316
aiah	-4317
hala	-4318
iyan	-4319
yath	-4320
▁hat	-4321
▁non	-4322
▁thy	-4323
▁drop	-4324
▁ever	-4325
▁mank	-4326
▁merc	-4327
▁spar	-4328
▁homes	-4329
▁puram	-4330
▁relax	-4331
▁thali	-4332
▁arcade	-4333
▁haveli	-4334
▁krishib	-4335
afe	-4336
cut	-4337
rup	-4338
▁os	-4339
▁pd	-4340
▁pm	-4341
happ	-4342
▁dod	-4343
▁gyn	-4344
▁rom	-4345
avati	-4346
ister	-4347
shahi	-4348
▁blus	-4349
▁cele	-4350
▁glps	-4351
▁khad	-4352
▁roop	-4353
▁diagn	-4354
▁mahak	-4355
▁shack	-4356
▁barber	-4357
▁kunnam	-4358
▁pering	-4359
▁retail	-4360
▁stuidio	-4361
▁vaishno	-4362
▁mahaveer	-4363
▁allowance	-4364
▁saraswathi	-4365
abi	-4366
bas	-4367
▁kc	-4368
hash	-4369
▁chh	-4370
▁cra	-4371
▁fat	-4372
▁mes	-4373
▁rit	-4374
▁ros	-4375
▁vip	-4376
aring	-4377
ernet	-4378
itive	-4379
kkara	-4380
sthan	-4381
▁gour	-4382
▁gudi	-4383
▁idli	-4384
▁kach	-4385
▁near	-4386
▁rajk	-4387
▁term	-4388
▁ware	-4389
▁banker	-4390
▁circle	-4391
▁medico	-4392
▁pathol	-4393
▁kunnath	-4394
▁library	-4395
▁fracture	-4396
dc	-4397
ils	-4398
ker	-4399
ota	-4400
cial	-4401
▁nex	-4402
▁tej	-4403
asree	-4404
cipal	-4405
iling	-4406
▁gstr	-4407
▁hald	-4408
▁khaj	-4409
▁kind	-4410
▁ride	-4411
ottery	-4412
yamman	-4413
▁chemb	-4414
▁pearl	-4415
▁shake	-4416
▁touch	-4417
▁hospit	-4418
▁imported	-4419
▁shawarma	-4420
ipur	-4421
shun	-4422
▁cam	-4423
▁iit	-4424
▁oce	-4425
▁tik	-4426
aliya	-4427
▁cghs	-4428
▁gyan	-4429
▁ital	-4430
▁kang	-4431
▁meal	-4432
▁shel	-4433
▁sndp	-4434
▁cycles	-4435
▁divine	-4436
▁mandal	-4437
▁prayer	-4438
▁ramesh	-4439
▁kizhakk	-4440
▁talkies	-4441
▁pediatric	-4442
ax	-4443
fs	-4444
bag	-4445
bin	-4446
edy	-4447
lan	-4448
ante	-4449
assy	-4450
made	-4451
olim	-4452
pore	-4453
▁blr	-4454
▁dew	-4455
▁kuz	-4456
▁see	-4457
▁toy	-4458
▁amin	-4459
▁pali	-4460
▁virt	-4461
anchay	-4462
▁padma	-4463
▁vishw	-4464
▁bistro	-4465
▁mahila	-4466
▁chikits	-4467
▁administr	-4468
34	-4469
▁0	-4470
nad	-4471
city	-4472
hore	-4473
ound	-4474
▁ais	-4475
▁cit	-4476
▁ggn	-4477
▁maz	-4478
▁nis	-4479
avari	-4480
edral	-4481
▁gari	-4482
▁news	-4483
▁oral	-4484
▁safe	-4485
▁sour	-4486
▁tube	-4487
▁vict	-4488
▁assoc	-4489
▁shifa	-4490
▁vaidy	-4491
▁compet	-4492
▁contin	-4493
▁heaven	-4494
▁orange	-4495
▁agrawal	-4496
▁clinics	-4497
▁constru	-4498
▁rehabil	-4499
▁textile	-4500
▁kottayam	-4501
▁krishibhavan	-4502
▁mahavidyalaya	-4503
dmy	-4504
jun	-4505
pol	-4506
▁ng	-4507
alya	-4508
ukal	-4509
zone	-4510
▁asw	-4511
▁dgd	-4512
▁esi	-4513
▁kop	-4514
▁peo	-4515
arana	-4516
erian	-4517
icial	-4518
palli	-4519
▁pond	-4520
▁sukh	-4521
▁usha	-4522
▁vani	-4523
▁wali	-4524
leshwar	-4525
▁handic	-4526
▁popcorn	-4527
▁retreat	-4528
▁rooftop	-4529
▁interior	-4530
▁sahakari	-4531
▁rationshop	-4532
▁'	-4533
gun	-4534
▁ml	-4535
▁tc	-4536
bhav	-4537
fund	-4538
▁bos	-4539
▁kus	-4540
▁lpg	-4541
class	-4542
cream	-4543
▁amit	-4544
▁arav	-4545
▁jame	-4546
▁momo	-4547
▁unre	-4548
▁abdul	-4549
▁couns	-4550
▁freel	-4551
▁magic	-4552
▁sadar	-4553
▁third	-4554
▁charge	-4555
▁common	-4556
▁therapy	-4557
▁trinity	-4558
▁cosmetic	-4559
▁football	-4560
can	-4561
zle	-4562
▁pk	-4563
atal	-4564
avur	-4565
dist	-4566
uzhy	-4567
▁bam	-4568
▁eco	-4569
▁vac	-4570
▁whi	-4571
achal	-4572
angam	-4573
ithya	-4574
iyoor	-4575
shine	-4576
▁golg	-4577
▁jind	-4578
▁medi	-4579
▁mega	-4580
ashala	-4581
▁gynec	-4582
▁kashi	-4583
▁sansk	-4584
▁ambika	-4585
▁mandap	-4586
▁gujarat	-4587
▁shubham	-4588
▁sunrise	-4589
▁tiffins	-4590
▁critical	-4591
▁infotech	-4592
▁cathedral	-4593
▁repairing	-4594
▁properties	-4595
▁certificate	-4596
mm	-4597
oop	-4598
uds	-4599
wai	-4600
▁ru	-4601
asar	-4602
icut	-4603
loom	-4604
raha	-4605
▁kil	-4606
▁tok	-4607
amala	-4608
▁chop	-4609
▁desi	-4610
▁help	-4611
▁jubi	-4612
▁kore	-4613
▁peer	-4614
▁silk	-4615
▁vidy	-4616
▁viol	-4617
▁madan	-4618
▁sneha	-4619
▁taste	-4620
▁dealer	-4621
▁shoppe	-4622
▁mandiram	-4623
ape	-4624
bel	-4625
gha	-4626
rom	-4627
ssa	-4628
cept	-4629
mani	-4630
▁dai	-4631
▁dee	-4632
▁sas	-4633
▁sug	-4634
▁you	-4635
▁zam	-4636
▁bure	-4637
▁coco	-4638
▁girl	-4639
▁manu	-4640
▁nadu	-4641
▁anant	-4642
▁bever	-4643
▁curry	-4644
▁groom	-4645
▁needs	-4646
▁prash	-4647
▁archit	-4648
▁mechan	-4649
▁vasavi	-4650
▁flowers	-4651
▁nirmala	-4652
▁perfect	-4653
▁charging	-4654
▁extension	-4655
ike	-4656
▁tm	-4657
▁uc	-4658
▁ze	-4659
ades	-4660
▁ara	-4661
▁lay	-4662
▁pin	-4663
▁tin	-4664
▁toi	-4665
▁tuk	-4666
igner	-4667
works	-4668
▁ajay	-4669
▁brah	-4670
▁just	-4671
▁urdu	-4672
anning	-4673
▁basic	-4674
▁datta	-4675
▁malay	-4676
▁phool	-4677
▁rooms	-4678
▁tikki	-4679
▁accomm	-4680
▁infant	-4681
▁pandit	-4682
▁pickup	-4683
ological	-4684
▁ganpati	-4685
▁marbles	-4686
▁spirits	-4687
ategorized	-4688
▁automobile	-4689
▁consultation	-4690
jo	-4691
bit	-4692
ism	-4693
rud	-4694
▁rb	-4695
akom	-4696
atan	-4697
▁blu	-4698
▁gru	-4699
▁lax	-4700
▁rol	-4701
ukavu	-4702
▁bond	-4703
▁fate	-4704
▁koll	-4705
▁lord	-4706
ellite	-4707
▁acdmy	-4708
▁gokul	-4709
▁stdio	-4710
▁vilas	-4711
▁bandra	-4712
▁croiss	-4713
▁gastro	-4714
▁jungle	-4715
▁people	-4716
▁aadhaar	-4717
▁pathology	-4718
▁townhouse	-4719
erg	-4720
ikh	-4721
▁dt	-4722
▁gp	-4723
hire	-4724
▁ccu	-4725
▁dul	-4726
▁tag	-4727
▁sign	-4728
▁slee	-4729
▁janta	-4730
▁mitha	-4731
▁ocean	-4732
ambalam	-4733
▁cheruv	-4734
▁spices	-4735
attukara	-4736
ayanagar	-4737
▁hosptal	-4738
▁jubilee	-4739
▁kairali	-4740
▁kumaran	-4741
▁tirupati	-4742
▁fisheries	-4743
aon	-4744
vas	-4745
▁nt	-4746
▁rp	-4747
alak	-4748
apal	-4749
eway	-4750
▁ala	-4751
▁pha	-4752
ambar	-4753
apore	-4754
▁mees	-4755
▁nari	-4756
▁pets	-4757
▁pram	-4758
angala	-4759
▁jagad	-4760
▁rajiv	-4761
▁roast	-4762
▁sunni	-4763
▁ashoka	-4764
▁deluxe	-4765
▁ramdev	-4766
▁renuka	-4767
▁rohini	-4768
▁arabian	-4769
▁dakshin	-4770
▁clinical	-4771
▁festival	-4772
▁treatment	-4773
▁highschool	-4774
▁rehabilitation	-4775
aja	-4776
erc	-4777
iva	-4778
▁17	-4779
▁rm	-4780
atty	-4781
pper	-4782
▁bin	-4783
▁den	-4784
▁dil	-4785
▁ear	-4786
▁gal	-4787
▁pir	-4788
▁suj	-4789
▁zph	-4790
▁amer	-4791
▁army	-4792
▁kidz	-4793
▁labs	-4794
▁pink	-4795
▁stop	-4796
▁chart	-4797
▁milma	-4798
▁madras	-4799
▁sharda	-4800
▁shanthi	-4801
▁designer	-4802
▁handloom	-4803
▁rajasthan	-4804
▁communications	-4805
uh	-4806
mir	-4807
off	-4808
▁mh	-4809
▁oc	-4810
▁rv	-4811
adha	-4812
food	-4813
ivan	-4814
ivis	-4815
▁gor	-4816
▁igl	-4817
▁nom	-4818
▁vag	-4819
▁xst	-4820
▁fren	-4821
▁kish	-4822
▁maya	-4823
▁pana	-4824
▁pank	-4825
▁wall	-4826
cherry	-4827
ground	-4828
issery	-4829
ushuns	-4830
▁cafet	-4831
▁chall	-4832
▁harsh	-4833
▁johns	-4834
▁kings	-4835
▁plumb	-4836
▁queen	-4837
▁snack	-4838
▁bureau	-4839
▁cuisine	-4840
▁panchak	-4841
▁quarter	-4842
▁vanitha	-4843
▁architect	-4844
▁solushuns	-4845
▁confection	-4846
▁fabrication	-4847
mam	-4848
mik	-4849
pra	-4850
▁bc	-4851
▁kb	-4852
itan	-4853
path	-4854
ully	-4855
▁fwc	-4856
▁mok	-4857
▁sta	-4858
▁tum	-4859
▁yel	-4860
anath	-4861
enary	-4862
hadur	-4863
▁kani	-4864
▁kush	-4865
▁must	-4866
▁nimb	-4867
▁ranj	-4868
▁toys	-4869
▁waff	-4870
attoor	-4871
▁akash	-4872
▁cardi	-4873
▁indus	-4874
▁karim	-4875
▁leela	-4876
▁sunil	-4877
▁german	-4878
▁calicut	-4879
▁chandan	-4880
▁shivaji	-4881
▁venkata	-4882
▁marriage	-4883
▁apartment	-4884
▁restaurnt	-4885
▁municipality	-4886
vo	-4887
aru	-4888
ipp	-4889
tan	-4890
▁13	-4891
adia	-4892
ello	-4893
▁imm	-4894
▁itr	-4895
▁ome	-4896
▁run	-4897
▁sag	-4898
amaha	-4899
manya	-4900
▁only	-4901
▁pend	-4902
▁udai	-4903
▁khadi	-4904
▁malik	-4905
▁tapri	-4906
▁three	-4907
▁acadmy	-4908
▁castle	-4909
▁kannur	-4910
▁notary	-4911
▁santhi	-4912
▁timber	-4913
▁courier	-4914
▁dresses	-4915
▁kalyani	-4916
▁urology	-4917
▁jewelers	-4918
▁remittance	-4919
lu	-4920
so	-4921
cil	-4922
kad	-4923
▁cm	-4924
▁ip	-4925
apan	-4926
bhai	-4927
ella	-4928
▁key	-4929
▁sty	-4930
▁uma	-4931
▁anne	-4932
▁boot	-4933
▁mool	-4934
▁neer	-4935
▁oper	-4936
▁sony	-4937
▁sabha	-4938
▁seven	-4939
▁sreek	-4940
▁sathya	-4941
▁sundar	-4942
▁thirum	-4943
▁delight	-4944
▁dentist	-4945
▁nandini	-4946
▁annapoor	-4947
▁treasury	-4948
▁religious	-4949
▁universal	-4950
20	-4951
gyn	-4952
her	-4953
isa	-4954
set	-4955
▁dn	-4956
ford	-4957
hish	-4958
▁ads	-4959
▁naz	-4960
adevi	-4961
andan	-4962
attil	-4963
thala	-4964
▁alam	-4965
▁butt	-4966
▁haji	-4967
▁kumb	-4968
▁maid	-4969
▁para	-4970
▁pook	-4971
▁prav	-4972
▁sams	-4973
▁scho	-4974
▁then	-4975
avaram	-4976
▁chhat	-4977
▁irani	-4978
▁salem	-4979
▁space	-4980
▁thane	-4981
▁french	-4982
▁indane	-4983
▁kindle	-4984
▁sankar	-4985
▁tatkal	-4986
▁comfort	-4987
▁muthoot	-4988
▁virtual	-4989
▁annivers	-4990
▁donation	-4991
▁tandoori	-4992
ui	-4993
yt	-4994
hos	-4995
oke	-4996
▁dy	-4997
▁tk	-4998
devi	-4999
road	-5000
▁aks	-5001
▁ndl	-5002
▁pho	-5003
▁ton	-5004
▁unc	-5005
coins	-5006
karan	-5007
ottil	-5008
ushad	-5009
watch	-5010
▁azad	-5011
▁coop	-5012
▁ghss	-5013
▁huda	-5014
▁late	-5015
▁pach	-5016
▁tram	-5017
annoor	-5018
▁speed	-5019
▁sudha	-5020
▁jewels	-5021
▁jindal	-5022
▁kinder	-5023
▁suites	-5024
▁archana	-5025
▁haircut	-5026
▁srvices	-5027
▁uniform	-5028
▁residence	-5029
▁satellite	-5030
▁unlimited	-5031
▁divisional	-5032
▁handicraft	-5033
▁continental	-5034
▁institutions	-5035
gu	-5036
das	-5037
rid	-5038
abha	-5039
clus	-5040
holi	-5041
read	-5042
rupa	-5043
udha	-5044
ukur	-5045
▁aak	-5046
▁esc	-5047
▁mac	-5048
athri	-5049
ority	-5050
▁diet	-5051
▁poth	-5052
▁seet	-5053
ashram	-5054
uruthy	-5055
▁recur	-5056
▁sandw	-5057
▁tasty	-5058
▁amrita	-5059
▁refund	-5060
▁reserv	-5061
▁spring	-5062
▁fortune	-5063
▁quality	-5064
▁mangalam	-5065
▁ganapathy	-5066
▁himalayan	-5067
uf	-5068
cot	-5069
eek	-5070
nie	-5071
yog	-5072
▁kt	-5073
▁nb	-5074
▁nu	-5075
aker	-5076
alai	-5077
erje	-5078
mint	-5079
reme	-5080
ruch	-5081
tion	-5082
▁avi	-5083
▁dli	-5084
▁ill	-5085
▁mrt	-5086
▁saj	-5087
hadra	-5088
▁bish	-5089
▁exam	-5090
▁neon	-5091
▁rash	-5092
ahalli	-5093
▁aashi	-5094
▁annai	-5095
▁ceram	-5096
▁honey	-5097
▁kanya	-5098
▁nidhi	-5099
▁notes	-5100
▁valet	-5101
arayana	-5102
eswaram	-5103
▁assemb	-5104
▁avenue	-5105
▁cotton	-5106
▁bahadur	-5107
▁embassy	-5108
▁enfield	-5109
▁servces	-5110
▁printers	-5111
▁cafeteria	-5112
▁restarant	-5113
▁sanjivani	-5114
eel	-5115
fol	-5116
umi	-5117
▁gv	-5118
▁tn	-5119
akur	-5120
apet	-5121
atio	-5122
illi	-5123
▁gel	-5124
▁kaz	-5125
▁ket	-5126
▁lan	-5127
▁niz	-5128
▁ruk	-5129
▁upp	-5130
adiya	-5131
amani	-5132
anand	-5133
apuri	-5134
ewadi	-5135
▁apex	-5136
▁bhas	-5137
▁call	-5138
▁cine	-5139
▁kank	-5140
▁kood	-5141
▁lung	-5142
▁megh	-5143
▁plast	-5144
▁times	-5145
▁yatri	-5146
clusive	-5147
▁bridal	-5148
▁kurish	-5149
▁tattoo	-5150
▁kiranam	-5151
▁accommod	-5152
▁sunshine	-5153
▁alappuzha	-5154
▁bagavathi	-5155
kn	-5156
het	-5157
muk	-5158
pto	-5159
yag	-5160
zar	-5161
▁dj	-5162
▁tp	-5163
anni	-5164
apav	-5165
ican	-5166
jana	-5167
pora	-5168
▁haw	-5169
▁lat	-5170
▁rot	-5171
▁smt	-5172
▁web	-5173
▁wok	-5174
ambil	-5175
dhani	-5176
ening	-5177
ukara	-5178
unnel	-5179
world	-5180
▁bach	-5181
▁bast	-5182
▁mane	-5183
▁phar	-5184
▁zion	-5185
center	-5186
oscopy	-5187
▁iyeng	-5188
▁milan	-5189
▁niwas	-5190
▁saroj	-5191
ination	-5192
▁chitra	-5193
▁cruise	-5194
▁toilet	-5195
inarayan	-5196
▁circuit	-5197
▁council	-5198
▁officer	-5199
▁sanjeev	-5200
▁diamonds	-5201
▁palakkad	-5202
▁distribut	-5203
▁kozhikode	-5204
dig	-5205
ves	-5206
▁kd	-5207
aper	-5208
asha	-5209
▁aup	-5210
▁jab	-5211
agaon	-5212
divis	-5213
ultry	-5214
▁alli	-5215
▁kuru	-5216
▁leaf	-5217
▁mans	-5218
▁samp	-5219
▁shil	-5220
▁coast	-5221
▁manoj	-5222
▁ruchi	-5223
▁sushi	-5224
ocation	-5225
▁bethel	-5226
▁chandi	-5227
▁course	-5228
▁orchid	-5229
▁rampur	-5230
learning	-5231
▁bhagwan	-5232
▁concept	-5233
▁kashmir	-5234
▁montess	-5235
▁sandeep	-5236
▁trainer	-5237
▁granites	-5238
▁planning	-5239
▁supplyco	-5240
▁collector	-5241
▁financial	-5242
▁bhadrakali	-5243
▁dm	-5244
▁np	-5245
▁vk	-5246
aiya	-5247
kavu	-5248
othi	-5249
ours	-5250
ulla	-5251
wing	-5252
▁bes	-5253
▁boy	-5254
▁ezh	-5255
▁fal	-5256
▁tig	-5257
▁vay	-5258
aksha	-5259
umari	-5260
▁aish	-5261
▁anur	-5262
▁bali	-5263
▁gems	-5264
▁poon	-5265
▁soni	-5266
▁thaz	-5267
achery	-5268
intend	-5269
ussery	-5270
▁baker	-5271
▁birla	-5272
▁booth	-5273
▁gompa	-5274
▁hindi	-5275
▁kamat	-5276
▁karam	-5277
▁misal	-5278
▁obgyn	-5279
▁traff	-5280
▁vasan	-5281
▁vimal	-5282
▁visit	-5283
▁vivek	-5284
▁yatra	-5285
▁angana	-5286
▁kannan	-5287
▁perumb	-5288
▁psychi	-5289
▁purcha	-5290
▁yamaha	-5291
▁customs	-5292
▁resorts	-5293
▁rajendra	-5294
▁straight	-5295
▁croissant	-5296
▁employment	-5297
▁sahakarana	-5298
▁directorate	-5299
ipi	-5300
▁ot	-5301
▁sj	-5302
▁tt	-5303
arai	-5304
aval	-5305
spot	-5306
unta	-5307
▁ked	-5308
▁nem	-5309
▁sms	-5310
amart	-5311
anadu	-5312
kanth	-5313
orpor	-5314
▁kong	-5315
▁lour	-5316
▁mapp	-5317
▁mind	-5318
▁poov	-5319
▁snap	-5320
▁aiims	-5321
▁assam	-5322
▁chung	-5323
▁lemon	-5324
▁mayur	-5325
▁preet	-5326
▁radhe	-5327
▁rishi	-5328
▁shari	-5329
▁sport	-5330
▁worli	-5331
▁angels	-5332
▁nation	-5333
▁pankaj	-5334
▁subhash	-5335
▁xstream	-5336
▁fibernet	-5337
▁vaishali	-5338
▁exclusive	-5339
▁vidhyalaya	-5340
▁attestation	-5341
ht	-5342
bai	-5343
bir	-5344
hri	-5345
rai	-5346
wah	-5347
▁gn	-5348
▁iq	-5349
▁tg	-5350
abhi	-5351
agod	-5352
aves	-5353
hori	-5354
kout	-5355
sain	-5356
step	-5357
undu	-5358
▁anu	-5359
▁jar	-5360
▁mix	-5361
▁pac	-5362
ayani	-5363
ikkad	-5364
quart	-5365
▁ajio	-5366
▁bhim	-5367
▁gaon	-5368
▁inno	-5369
▁nice	-5370
▁pizz	-5371
▁rath	-5372
▁seas	-5373
▁vaik	-5374
▁zphs	-5375
ardhan	-5376
urance	-5377
▁chill	-5378
▁sreen	-5379
▁canara	-5380
▁excell	-5381
▁metals	-5382
▁satyam	-5383
▁pilgrim	-5384
▁vilasam	-5385
▁aiswarya	-5386
▁muncipal	-5387
▁payyanur	-5388
▁textbook	-5389
▁creations	-5390
▁vivekanand	-5391
ook	-5392
usa	-5393
arik	-5394
baba	-5395
olly	-5396
roid	-5397
sari	-5398
tham	-5399
unch	-5400
▁neg	-5401
▁nid	-5402
▁sof	-5403
▁uid	-5404
athul	-5405
ichal	-5406
urban	-5407
▁dada	-5408
▁dept	-5409
▁jeev	-5410
▁kath	-5411
▁kham	-5412
▁khas	-5413
▁moti	-5414
▁topp	-5415
millah	-5416
▁chint	-5417
▁frank	-5418
▁guard	-5419
▁stick	-5420
▁zilla	-5421
amkulam	-5422
▁puthen	-5423
▁spares	-5424
▁trends	-5425
▁vasant	-5426
▁fabrics	-5427
▁janatha	-5428
▁navodaya	-5429
▁competitive	-5430
alp	-5431
dan	-5432
sal	-5433
▁ci	-5434
▁cn	-5435
▁gk	-5436
▁jm	-5437
heed	-5438
uram	-5439
▁bun	-5440
▁fai	-5441
▁ivf	-5442
▁nur	-5443
▁sop	-5444
▁tro	-5445
▁vak	-5446
▁yad	-5447
asala	-5448
dress	-5449
ivity	-5450
press	-5451
▁bamb	-5452
▁calc	-5453
▁dess	-5454
▁heal	-5455
▁ruby	-5456
▁schl	-5457
minton	-5458
office	-5459
unatha	-5460
vision	-5461
wanath	-5462
▁align	-5463
▁ameen	-5464
▁arena	-5465
▁brain	-5466
▁faith	-5467
▁gradu	-5468
▁karuk	-5469
▁madar	-5470
▁omkar	-5471
▁pushp	-5472
▁venus	-5473
ampuzha	-5474
▁chruch	-5475
▁colour	-5476
▁deccan	-5477
▁dreams	-5478
▁naveen	-5479
▁santho	-5480
▁steels	-5481
▁aliganj	-5482
▁hotstar	-5483
▁sankara	-5484
▁western	-5485
▁bhagwati	-5486
▁golgappa	-5487
▁pharmace	-5488
▁reseller	-5489
▁adventure	-5490
▁bismillah	-5491
▁household	-5492
▁kasaragod	-5493
▁preschool	-5494
▁sarvodaya	-5495
▁commercial	-5496
▁anniversary	-5497
▁consultancy	-5498
dom	-5499
how	-5500
las	-5501
ror	-5502
▁vs	-5503
ajan	-5504
allu	-5505
andy	-5506
atna	-5507
hony	-5508
rosc	-5509
sala	-5510
▁ell	-5511
ademy	-5512
angar	-5513
anoor	-5514
▁anup	-5515
▁conv	-5516
▁kuri	-5517
▁neur	-5518
▁panj	-5519
▁pati	-5520
▁salt	-5521
▁shat	-5522
▁syed	-5523
akkavu	-5524
ership	-5525
▁drink	-5526
▁kacho	-5527
▁maham	-5528
▁olive	-5529
▁perum	-5530
▁shops	-5531
▁skool	-5532
▁celebr	-5533
▁direct	-5534
▁margin	-5535
▁mithai	-5536
▁servce	-5537
▁subrah	-5538
amangala	-5539
▁grounds	-5540
▁install	-5541
▁italian	-5542
▁license	-5543
▁perfume	-5544
▁plumbing	-5545
▁headquart	-5546
▁reference	-5547
▁anganawadi	-5548
▁furnishing	-5549
iq	-5550
fle	-5551
lin	-5552
pri	-5553
ude	-5554
uji	-5555
▁au	-5556
▁ey	-5557
▁ik	-5558
▁rg	-5559
anan	-5560
angu	-5561
fert	-5562
ghar	-5563
haba	-5564
▁gun	-5565
merce	-5566
uddin	-5567
▁aloo	-5568
▁buff	-5569
▁pars	-5570
▁thay	-5571
▁vacc	-5572
▁wing	-5573
angaon	-5574
ankavu	-5575
▁advoc	-5576
▁cheri	-5577
▁crown	-5578
▁icici	-5579
▁irrig	-5580
▁jiofi	-5581
▁netra	-5582
▁sabzi	-5583
▁spare	-5584
indavan	-5585
▁bishop	-5586
▁hosptl	-5587
▁nutrit	-5588
▁puzzle	-5589
▁samosa	-5590
▁vadapav	-5591
▁ashirwad	-5592
▁grooming	-5593
▁icecream	-5594
▁sandwich	-5595
▁mariamman	-5596
▁vaishnavi	-5597
▁irrigation	-5598
▁pharmaceut	-5599
dia	-5600
eev	-5601
kur	-5602
orp	-5603
pad	-5604
uba	-5605
vey	-5606
asis	-5607
eran	-5608
hany	-5609
▁doc	-5610
▁gag	-5611
▁lam	-5612
▁raz	-5613
▁yam	-5614
andur	-5615
haran	-5616
ikode	-5617
▁aqua	-5618
▁banj	-5619
▁holi	-5620
▁kota	-5621
▁outd	-5622
▁sapp	-5623
▁sast	-5624
▁siri	-5625
▁smrt	-5626
▁soor	-5627
▁swag	-5628
▁them	-5629
▁vide	-5630
adurga	-5631
▁adoor	-5632
▁advis	-5633
▁bites	-5634
▁equip	-5635
▁event	-5636
▁halli	-5637
▁lions	-5638
▁novel	-5639
▁prath	-5640
▁saini	-5641
ociates	-5642
▁bhojan	-5643
▁dermat	-5644
▁infert	-5645
▁jagann	-5646
▁marble	-5647
▁perump	-5648
▁waffle	-5649
▁hearing	-5650
▁manjeri	-5651
▁nalanda	-5652
▁nilayam	-5653
▁tibetan	-5654
▁holidays	-5655
▁panchakarma	-5656
57	-5657
act	-5658
gad	-5659
olo	-5660
rik	-5661
zhi	-5662
▁ft	-5663
▁lc	-5664
▁td	-5665
▁ug	-5666
▁yt	-5667
▁za	-5668
deal	-5669
ilal	-5670
inad	-5671
jyot	-5672
ulya	-5673
upur	-5674
utam	-5675
▁cms	-5676
▁ern	-5677
▁hor	-5678
▁pee	-5679
▁sig	-5680
▁sis	-5681
▁und	-5682
anjan	-5683
arthi	-5684
inger	-5685
shree	-5686
▁bind	-5687
▁eats	-5688
▁face	-5689
▁hans	-5690
▁jagd	-5691
▁mana	-5692
▁modi	-5693
▁nall	-5694
▁sahu	-5695
▁wind	-5696
iching	-5697
ultant	-5698
▁infra	-5699
▁studi	-5700
▁whisk	-5701
working	-5702
▁baroda	-5703
▁income	-5704
▁meesho	-5705
▁mental	-5706
▁parish	-5707
▁pratap	-5708
▁tharav	-5709
▁towers	-5710
▁tution	-5711
▁bengali	-5712
▁bhawani	-5713
▁swastik	-5714
▁traffic	-5715
▁builders	-5716
▁entrance	-5717
▁subramanya	-5718
▁infertility	-5719
bl	-5720
hen	-5721
rew	-5722
umm	-5723
▁dp	-5724
▁py	-5725
aire	-5726
etra	-5727
hali	-5728
kish	-5729
oshi	-5730
uria	-5731
▁bou	-5732
▁mog	-5733
▁tad	-5734
ampur	-5735
▁bulk	-5736
▁gopi	-5737
▁nood	-5738
▁sewa	-5739
▁tune	-5740
▁vara	-5741
asseri	-5742
aurant	-5743
▁cabin	-5744
▁khera	-5745
▁mitra	-5746
▁ratna	-5747
▁thoma	-5748
▁toast	-5749
▁aastha	-5750
▁anjali	-5751
▁maveli	-5752
▁sangha	-5753
▁sarada	-5754
▁techno	-5755
▁bikaner	-5756
▁islamic	-5757
▁sleeper	-5758
▁quarters	-5759
▁rajdhani	-5760
▁badminton	-5761
▁chaudhary	-5762
▁counseling	-5763
▁playstation	-5764
car	-5765
jus	-5766
▁ok	-5767
inga	-5768
oram	-5769
ukki	-5770
▁ias	-5771
▁ipc	-5772
▁kee	-5773
▁leg	-5774
▁pvr	-5775
▁rac	-5776
▁sdh	-5777
▁tom	-5778
▁yes	-5779
haram	-5780
kshmi	-5781
▁chef	-5782
▁rand	-5783
▁sett	-5784
happan	-5785
ikkavu	-5786
▁basav	-5787
▁cheap	-5788
▁dayal	-5789
▁desai	-5790
▁great	-5791
▁innov	-5792
▁janak	-5793
▁khana	-5794
▁shani	-5795
▁mansar	-5796
▁wheels	-5797
▁assembly	-5798
▁toiletry	-5799
▁instagram	-5800
▁montessori	-5801
▁playground	-5802
▁vidyalayam	-5803
bc	-5804
ii	-5805
wr	-5806
bhu	-5807
ely	-5808
erd	-5809
fee	-5810
ico	-5811
igo	-5812
▁bt	-5813
▁uk	-5814
camp	-5815
cent	-5816
hsil	-5817
itri	-5818
iyar	-5819
ries	-5820
▁aws	-5821
▁eid	-5822
▁fix	-5823
▁him	-5824
▁kov	-5825
▁oak	-5826
▁org	-5827
▁pah	-5828
▁vem	-5829
attur	-5830
ellur	-5831
ering	-5832
ithan	-5833
stery	-5834
yaram	-5835
▁anti	-5836
▁anug	-5837
▁bhal	-5838
▁dorm	-5839
▁garh	-5840
▁hope	-5841
▁mook	-5842
▁palm	-5843
▁putt	-5844
▁sona	-5845
▁trim	-5846
aswami	-5847
▁alpha	-5848
▁civic	-5849
▁inver	-5850
▁jwell	-5851
▁manav	-5852
▁micha	-5853
▁nedum	-5854
▁ratan	-5855
▁shahi	-5856
▁thatt	-5857
▁vouch	-5858
▁bharti	-5859
▁carpet	-5860
▁dhabba	-5861
▁kidang	-5862
▁mariya	-5863
▁mathew	-5864
▁mysore	-5865
▁sairam	-5866
▁shaved	-5867
▁shishu	-5868
▁instrum	-5869
▁maratha	-5870
▁serviss	-5871
▁sharada	-5872
▁siddhar	-5873
▁handmade	-5874
▁madrassa	-5875
▁gregorios	-5876
▁photography	-5877
▁chikitsalaya	-5878
▁construction	-5879
-2	-5880
10	-5881
su	-5882
byt	-5883
gen	-5884
mnt	-5885
nag	-5886
win	-5887
▁hu	-5888
▁jj	-5889
▁sf	-5890
arni	-5891
eril	-5892
ette	-5893
heri	-5894
pack	-5895
pada	-5896
rani	-5897
usha	-5898
wana	-5899
▁fly	-5900
▁fry	-5901
▁isp	-5902
▁kub	-5903
ocare	-5904
▁chir	-5905
▁icds	-5906
▁jioc	-5907
▁moto	-5908
▁pedd	-5909
anatha	-5910
▁cocon	-5911
▁darul	-5912
▁kanji	-5913
▁muham	-5914
▁overn	-5915
▁rajan	-5916
▁restu	-5917
eration	-5918
▁basket	-5919
▁fertil	-5920
▁kamala	-5921
▁kaveri	-5922
▁malhot	-5923
▁salafi	-5924
▁transa	-5925
▁ashwini	-5926
▁brewery	-5927
▁darshan	-5928
▁eastern	-5929
▁haryana	-5930
▁iyengar	-5931
▁blusmart	-5932
▁gayathri	-5933
▁himalaya	-5934
▁mahendra	-5935
▁neonatal	-5936
▁commissioner	-5937
eco	-5938
zon	-5939
▁if	-5940
▁nw	-5941
▁uj	-5942
hant	-5943
hoda	-5944
ific	-5945
ishi	-5946
khar	-5947
ohar	-5948
stri	-5949
uthy	-5950
▁aay	-5951
▁arv	-5952
▁cdm	-5953
▁lav	-5954
▁mcd	-5955
▁nac	-5956
inema	-5957
▁conc	-5958
▁gupt	-5959
▁hung	-5960
▁isha	-5961
▁jhan	-5962
▁lazy	-5963
▁peed	-5964
▁pest	-5965
▁refu	-5966
▁take	-5967
▁wave	-5968
jeevan	-5969
▁chath	-5970
▁games	-5971
▁imper	-5972
▁matri	-5973
▁siddi	-5974
▁sreed	-5975
vinayak	-5976
▁bhuvan	-5977
▁driver	-5978
▁fellow	-5979
▁layout	-5980
▁lights	-5981
▁manish	-5982
▁mataji	-5983
▁optics	-5984
▁safari	-5985
▁sparsh	-5986
▁farmers	-5987
▁generic	-5988
▁kachori	-5989
▁packers	-5990
▁teacher	-5991
▁tourism	-5992
▁welcome	-5993
▁priority	-5994
▁purchase	-5995
▁dispensery	-5996
▁manjunatha	-5997
24	-5998
vm	-5999
ets	-6000
gai	-6001
ges	-6002
hss	-6003
nes	-6004
oba	-6005
old	-6006
rut	-6007
▁du	-6008
▁hc	-6009
▁nj	-6010
▁rj	-6011
▁wo	-6012
cane	-6013
guri	-6014
hora	-6015
vant	-6016
▁cou	-6017
▁now	-6018
atpur	-6019
honsa	-6020
kheda	-6021
▁aero	-6022
▁atta	-6023
▁audi	-6024
▁buds	-6025
▁cess	-6026
▁datt	-6027
▁glam	-6028
▁kant	-6029
▁namb	-6030
▁pang	-6031
▁pant	-6032
▁sana	-6033
akkada	-6034
opathy	-6035
▁audio	-6036
▁bible	-6037
▁madam	-6038
▁mamta	-6039
▁naduv	-6040
▁nivas	-6041
▁oasis	-6042
▁pally	-6043
▁piped	-6044
▁rudra	-6045
▁sachi	-6046
▁vayal	-6047
ampally	-6048
▁deputy	-6049
▁logist	-6050
▁postal	-6051
▁shopcl	-6052
▁treebo	-6053
▁coconut	-6054
▁esports	-6055
▁gateway	-6056
▁gurukul	-6057
▁presbyt	-6058
▁american	-6059
▁aminabad	-6060
▁chinmaya	-6061
▁readymade	-6062
▁violation	-6063
▁readymades	-6064
▁whitefield	-6065
ams	-6066
gon	-6067
inn	-6068
▁30	-6069
▁ck	-6070
ayya	-6071
edia	-6072
eram	-6073
ined	-6074
▁bit	-6075
▁fas	-6076
▁fut	-6077
▁mgm	-6078
▁mub	-6079
▁muz	-6080
▁nri	-6081
▁sow	-6082
▁vat	-6083
aging	-6084
akode	-6085
cheri	-6086
▁bark	-6087
▁brit	-6088
▁eleg	-6089
▁hire	-6090
▁kara	-6091
▁padi	-6092
▁safa	-6093
▁sidh	-6094
▁thur	-6095
▁tola	-6096
▁what	-6097
▁aluva	-6098
▁bosco	-6099
▁chakk	-6100
▁digil	-6101
▁emerg	-6102
▁graph	-6103
▁hello	-6104
▁jumma	-6105
▁karan	-6106
▁naksh	-6107
▁omega	-6108
▁sarai	-6109
▁shala	-6110
hakulam	-6111
▁applic	-6112
▁butter	-6113
▁dormit	-6114
▁rubber	-6115
▁sahara	-6116
▁screen	-6117
▁servic	-6118
▁system	-6119
▁vaidya	-6120
▁amrutha	-6121
▁automot	-6122
▁bethany	-6123
▁bhaskar	-6124
▁hospitl	-6125
▁lottery	-6126
▁mappila	-6127
▁musical	-6128
▁shreeji	-6129
▁stiching	-6130
▁toppings	-6131
▁multiplex	-6132
▁muthappan	-6133
▁nutrition	-6134
▁quarterly	-6135
▁subcenter	-6136
▁institution	-6137
aa	-6138
cry	-6139
num	-6140
put	-6141
veg	-6142
▁32	-6143
▁gd	-6144
akar	-6145
athe	-6146
cell	-6147
havi	-6148
kala	-6149
ntra	-6150
oper	-6151
osis	-6152
urya	-6153
zham	-6154
▁dan	-6155
▁dip	-6156
▁jat	-6157
▁lip	-6158
▁say	-6159
khana	-6160
▁adop	-6161
▁avin	-6162
▁dine	-6163
▁fant	-6164
▁fare	-6165
▁habi	-6166
▁mama	-6167
▁mugh	-6168
▁pott	-6169
▁rout	-6170
▁sahy	-6171
astava	-6172
hanpur	-6173
▁dates	-6174
▁fleet	-6175
▁lapar	-6176
▁rakhi	-6177
▁rohit	-6178
▁sheet	-6179
▁subsc	-6180
▁ananda	-6181
▁buffet	-6182
▁labour	-6183
▁munnar	-6184
▁secret	-6185
▁spirit	-6186
▁sriram	-6187
▁haritha	-6188
▁leather	-6189
▁triveni	-6190
▁mallikar	-6191
▁oriental	-6192
▁rajshahi	-6193
▁srinivas	-6194
▁aishwarya	-6195
▁headquarters	-6196
30	-6197
ej	-6198
mg	-6199
ctc	-6200
key	-6201
omi	-6202
yya	-6203
▁db	-6204
▁rh	-6205
alik	-6206
azhy	-6207
ichi	-6208
imar	-6209
iser	-6210
iver	-6211
ored	-6212
▁bol	-6213
▁boo	-6214
▁laj	-6215
▁led	-6216
abari	-6217
aming	-6218
price	-6219
▁alex	-6220
▁boat	-6221
▁deva	-6222
▁dhak	-6223
▁gore	-6224
▁indo	-6225
▁jude	-6226
▁rahm	-6227
▁rana	-6228
▁used	-6229
ambika	-6230
ichira	-6231
ration	-6232
▁anton	-6233
▁cerel	-6234
▁chann	-6235
▁floor	-6236
▁gifts	-6237
▁meera	-6238
▁pregn	-6239
▁sarbo	-6240
▁shrad	-6241
▁staff	-6242
▁sunny	-6243
▁devast	-6244
▁forane	-6245
▁geetha	-6246
▁movers	-6247
▁prabha	-6248
▁prabhu	-6249
▁samiti	-6250
▁tagore	-6251
▁driving	-6252
▁shriram	-6253
attupuzha	-6254
▁engineers	-6255
▁presbyterian	-6256
50	-6257
jit	-6258
led	-6259
▁dg	-6260
▁gt	-6261
abai	-6262
atar	-6263
eddy	-6264
ging	-6265
iraj	-6266
itar	-6267
iter	-6268
mula	-6269
sang	-6270
ugal	-6271
ures	-6272
uten	-6273
viya	-6274
▁akk	-6275
▁aug	-6276
▁cbc	-6277
▁dhe	-6278
▁epf	-6279
▁hit	-6280
▁hps	-6281
▁phd	-6282
▁str	-6283
ambra	-6284
ector	-6285
eline	-6286
icare	-6287
usion	-6288
▁amal	-6289
▁ghee	-6290
▁kaip	-6291
▁love	-6292
▁luth	-6293
▁bless	-6294
▁camps	-6295
▁coins	-6296
▁ghost	-6297
▁mango	-6298
▁manor	-6299
▁sauna	-6300
▁tanda	-6301
▁udipi	-6302
▁assess	-6303
▁gramap	-6304
▁karuna	-6305
▁oxford	-6306
▁servis	-6307
▁ultras	-6308
▁cardiac	-6309
▁checkup	-6310
▁crystal	-6311
▁josephs	-6312
▁outdoor	-6313
▁sarkari	-6314
▁activity	-6315
▁candolim	-6316
▁dakshina	-6317
▁tirumala	-6318
▁recurring	-6319
▁fellowship	-6320
▁investment	-6321
▁dharamshala	-6322
lok	-6323
pai	-6324
▁bg	-6325
▁jd	-6326
ahat	-6327
etta	-6328
inam	-6329
mark	-6330
rapp	-6331
ways	-6332
▁ark	-6333
▁guj	-6334
▁mri	-6335
▁pds	-6336
▁seo	-6337
▁tie	-6338
andar	-6339
cious	-6340
ctors	-6341
janin	-6342
point	-6343
utham	-6344
▁caps	-6345
▁cour	-6346
▁gyna	-6347
▁kait	-6348
▁kupp	-6349
▁moun	-6350
▁naik	-6351
▁reni	-6352
▁rich	-6353
▁tiny	-6354
▁vark	-6355
alamma	-6356
▁field	-6357
▁metal	-6358
▁natur	-6359
▁pawan	-6360
▁spicy	-6361
▁sudar	-6362
▁syrup	-6363
▁tilak	-6364
▁tirth	-6365
▁tulsi	-6366
▁brahma	-6367
▁crafts	-6368
▁empire	-6369
▁janata	-6370
▁mukesh	-6371
▁thalli	-6372
▁bhojnal	-6373
▁diagnst	-6374
▁gourmet	-6375
▁greater	-6376
▁madeena	-6377
▁physics	-6378
▁reading	-6379
▁theresa	-6380
▁chemical	-6381
▁diabetic	-6382
▁mattress	-6383
▁sapphire	-6384
▁emergency	-6385
▁jayanagar	-6386
▁mahanagar	-6387
▁sarbojanin	-6388
37	-6389
47	-6390
ea	-6391
ib	-6392
py	-6393
vn	-6394
agu	-6395
aly	-6396
eur	-6397
ify	-6398
mys	-6399
ody	-6400
ven	-6401
▁jb	-6402
▁tl	-6403
dish	-6404
isan	-6405
opic	-6406
ottu	-6407
▁deb	-6408
▁lor	-6409
▁rus	-6410
▁ten	-6411
▁tow	-6412
▁unn	-6413
apati	-6414
atiya	-6415
hayam	-6416
itech	-6417
kunnu	-6418
patti	-6419
upara	-6420
▁beam	-6421
▁carp	-6422
▁half	-6423
▁hima	-6424
▁mphc	-6425
▁neft	-6426
▁poin	-6427
▁sale	-6428
▁seth	-6429
manuel	-6430
rology	-6431
thitta	-6432
upuzha	-6433
▁bally	-6434
▁bijli	-6435
▁china	-6436
▁color	-6437
▁condi	-6438
▁cresc	-6439
▁gowri	-6440
▁kohin	-6441
▁piles	-6442
▁rasoi	-6443
▁recre	-6444
▁roman	-6445
▁vinod	-6446
▁ashish	-6447
▁bhagat	-6448
▁budget	-6449
▁emeral	-6450
▁harish	-6451
▁madina	-6452
anchayat	-6453
▁advisor	-6454
▁alankar	-6455
▁anthony	-6456
▁photost	-6457
▁distance	-6458
▁ganapati	-6459
▁interest	-6460
▁karthika	-6461
▁nikethan	-6462
▁sansthan	-6463
▁jagannath	-6464
▁hazratganj	-6465
▁malappuram	-6466
▁sonography	-6467
▁swaminarayan	-6468
lep	-6469
▁gc	-6470
▁mf	-6471
▁uz	-6472
adan	-6473
aheb	-6474
ants	-6475
hini	-6476
opal	-6477
pthi	-6478
sana	-6479
tact	-6480
thri	-6481
ulia	-6482
umig	-6483
▁age	-6484
▁bav	-6485
▁csc	-6486
▁det	-6487
▁eur	-6488
▁sle	-6489
▁wag	-6490
adhya	-6491
akdev	-6492
ammal	-6493
books	-6494
otion	-6495
ridge	-6496
▁cock	-6497
▁dand	-6498
▁down	-6499
▁hops	-6500
▁khat	-6501
▁lsgd	-6502
▁mala	-6503
▁medu	-6504
▁unac	-6505
▁yell	-6506
adhana	-6507
akhana	-6508
appura	-6509
spital	-6510
▁bihar	-6511
▁bloom	-6512
▁disco	-6513
▁griha	-6514
▁guide	-6515
▁lasik	-6516
▁panel	-6517
▁pavan	-6518
▁pride	-6519
▁sheph	-6520
▁spark	-6521
▁table	-6522
ankanni	-6523
▁calist	-6524
▁gautam	-6525
▁sabari	-6526
▁shagun	-6527
▁subway	-6528
▁paravur	-6529
▁shaheed	-6530
▁sitaram	-6531
▁turkish	-6532
▁welding	-6533
▁alphonsa	-6534
▁bookshop	-6535
▁judicial	-6536
▁snapdeal	-6537
▁srinagar	-6538
▁suburban	-6539
▁vetinary	-6540
▁vidyalay	-6541
divisional	-6542
▁beverages	-6543
▁siddharth	-6544
▁vidyapeeth	-6545
32	-6546
hp	-6547
abd	-6548
oly	-6549
ome	-6550
pla	-6551
tal	-6552
▁hb	-6553
▁nn	-6554
▁vt	-6555
dham	-6556
enix	-6557
ewal	-6558
roli	-6559
udio	-6560
view	-6561
yara	-6562
▁buy	-6563
▁enc	-6564
▁ken	-6565
▁uhc	-6566
▁vib	-6567
amber	-6568
athar	-6569
ithal	-6570
odara	-6571
▁base	-6572
▁dies	-6573
▁fall	-6574
▁hira	-6575
▁jose	-6576
▁leis	-6577
▁meer	-6578
▁nars	-6579
▁rais	-6580
▁suit	-6581
▁upsc	-6582
apathi	-6583
ctions	-6584
▁arjun	-6585
▁chikk	-6586
▁ebook	-6587
▁palam	-6588
▁ready	-6589
▁santh	-6590
▁seekh	-6591
▁softy	-6592
▁uncle	-6593
▁varad	-6594
▁arvind	-6595
▁cheruk	-6596
▁negoti	-6597
▁picnic	-6598
▁priyad	-6599
▁shopee	-6600
▁thiruk	-6601
▁transp	-6602
▁videoc	-6603
▁gardens	-6604
▁washing	-6605
▁crescent	-6606
▁doorstep	-6607
▁imperial	-6608
▁mandapam	-6609
▁seminary	-6610
▁dormitory	-6611
▁maninagar	-6612
▁shopclues	-6613
▁subrahmanya	-6614
▁accommodation	-6615
ez	-6616
rc	-6617
sn	-6618
abx	-6619
hna	-6620
oil	-6621
tar	-6622
uze	-6623
waj	-6624
▁rn	-6625
▁xl	-6626
aura	-6627
ento	-6628
idav	-6629
mana	-6630
ruti	-6631
very	-6632
yees	-6633
▁adm	-6634
▁daw	-6635
▁koy	-6636
▁mol	-6637
▁oph	-6638
▁spr	-6639
▁tee	-6640
chana	-6641
egaon	-6642
gress	-6643
hiram	-6644
itute	-6645
story	-6646
thalm	-6647
▁amba	-6648
▁dwar	-6649
▁eden	-6650
▁hort	-6651
▁jhar	-6652
▁kenn	-6653
▁lala	-6654
▁last	-6655
▁load	-6656
▁mehr	-6657
▁naga	-6658
▁neri	-6659
▁neth	-6660
▁nuts	-6661
▁pind	-6662
▁site	-6663
▁tonk	-6664
▁worl	-6665
akarma	-6666
andeep	-6667
esthet	-6668
ravati	-6669
▁adani	-6670
▁baraf	-6671
▁deepa	-6672
▁dutta	-6673
▁extra	-6674
▁gomti	-6675
▁invis	-6676
▁outst	-6677
▁right	-6678
▁stays	-6679
▁terra	-6680
▁tiger	-6681
▁vegit	-6682
▁youth	-6683
▁chanda	-6684
▁change	-6685
▁dispos	-6686
▁divide	-6687
▁gluten	-6688
▁kottar	-6689
▁neethi	-6690
▁panchk	-6691
▁pushpa	-6692
▁regist	-6693
▁stream	-6694
▁survey	-6695
▁teresa	-6696
▁aarogya	-6697
▁emerald	-6698
▁ganesha	-6699
▁surabhi	-6700
▁anugraha	-6701
▁chamunda	-6702
▁cottages	-6703
▁jiofiber	-6704
▁kohinoor	-6705
▁shankara	-6706
▁shraddha	-6707
▁logistics	-6708
▁raghunath	-6709
▁condiments	-6710
▁mansarovar	-6711
▁pilgrimage	-6712
▁postoffice	-6713
▁restuarant	-6714
▁ultrasound	-6715
▁koramangala	-6716
▁kudumbasree	-6717
55	-6718
hk	-6719
hl	-6720
hr	-6721
gur	-6722
lli	-6723
mac	-6724
yav	-6725
▁ix	-6726
▁oj	-6727
▁vv	-6728
adar	-6729
anak	-6730
back	-6731
cess	-6732
ewar	-6733
hode	-6734
home	-6735
ised	-6736
izer	-6737
shak	-6738
town	-6739
▁awa	-6740
▁bey	-6741
▁cri	-6742
▁def	-6743
▁hak	-6744
▁hil	-6745
▁nab	-6746
▁pag	-6747
▁vaj	-6748
ature	-6749
avady	-6750
berry	-6751
ecare	-6752
gunge	-6753
ossom	-6754
sheet	-6755
▁adar	-6756
▁bhut	-6757
▁bite	-6758
▁chav	-6759
▁chun	-6760
▁dash	-6761
▁ency	-6762
▁ghaz	-6763
▁lakh	-6764
▁lulu	-6765
▁pare	-6766
▁sach	-6767
▁shab	-6768
▁smar	-6769
▁spee	-6770
ambagh	-6771
andrum	-6772
ardham	-6773
avathy	-6774
iction	-6775
oorthy	-6776
ppalli	-6777
▁allen	-6778
▁basil	-6779
▁dhani	-6780
▁diary	-6781
▁fumig	-6782
▁guruv	-6783
▁kanak	-6784
▁karuv	-6785
▁latin	-6786
▁nimbu	-6787
▁rebel	-6788
▁revol	-6789
▁steph	-6790
▁vidhy	-6791
ndicate	-6792
yapuram	-6793
▁experi	-6794
▁gelato	-6795
▁impact	-6796
▁indoor	-6797
▁ramana	-6798
▁sachiv	-6799
▁sarkar	-6800
▁scheme	-6801
hapatnam	-6802
▁acharya	-6803
▁bajrang	-6804
▁dessert	-6805
▁fantasy	-6806
▁premier	-6807
▁voucher	-6808
imangalam	-6809
▁military	-6810
▁ayurvedha	-6811
▁hairdress	-6812
▁materials	-6813
▁sugarcane	-6814
▁trivandrum	-6815
▁distributors	-6816
aw	-6817
max	-6818
ops	-6819
pcr	-6820
rab	-6821
▁20	-6822
▁22	-6823
atic	-6824
file	-6825
igen	-6826
mari	-6827
ochi	-6828
raya	-6829
ster	-6830
undh	-6831
▁abc	-6832
▁how	-6833
▁lum	-6834
▁muv	-6835
▁nps	-6836
▁rid	-6837
▁vee	-6838
allil	-6839
aries	-6840
hotel	-6841
uthur	-6842
▁bart	-6843
▁brij	-6844
▁cliq	-6845
▁flav	-6846
▁hori	-6847
▁igst	-6848
▁kamb	-6849
▁keez	-6850
▁kira	-6851
▁lear	-6852
▁nila	-6853
▁nphc	-6854
▁wild	-6855
ahanka	-6856
▁chinn	-6857
▁karma	-6858
▁kooth	-6859
▁later	-6860
▁saket	-6861
▁toyot	-6862
ungalow	-6863
▁abroad	-6864
▁akshay	-6865
▁dinesh	-6866
▁harsha	-6867
▁idukki	-6868
▁keshav	-6869
▁marine	-6870
▁murali	-6871
▁rotary	-6872
▁sainik	-6873
▁srvice	-6874
▁vidyam	-6875
▁akshara	-6876
▁arihant	-6877
▁blossom	-6878
▁cerelac	-6879
▁committ	-6880
▁frankie	-6881
▁hussain	-6882
▁kalpana	-6883
▁mangala	-6884
▁motorcy	-6885
▁pradeep	-6886
▁calcutta	-6887
▁creative	-6888
▁standard	-6889
▁bestprice	-6890
▁freelance	-6891
▁inspector	-6892
▁vinayakar	-6893
▁maheshwari	-6894
▁thiruvalla	-6895
▁installment	-6896
▁siddhivinayak	-6897
▁administrative	-6898
bot	-6899
eti	-6900
isi	-6901
jal	-6902
▁mj	-6903
▁nk	-6904
▁vm	-6905
empt	-6906
ered	-6907
gage	-6908
hans	-6909
hola	-6910
icse	-6911
idas	-6912
ingh	-6913
iton	-6914
mara	-6915
mini	-6916
plus	-6917
shad	-6918
shek	-6919
shti	-6920
▁alt	-6921
▁ani	-6922
▁ett	-6923
▁zee	-6924
abadi	-6925
icult	-6926
ikavu	-6927
ublic	-6928
▁ajit	-6929
▁arog	-6930
▁four	-6931
▁gund	-6932
▁hang	-6933
▁lamp	-6934
▁poom	-6935
▁praj	-6936
▁priy	-6937
▁roya	-6938
▁sann	-6939
▁sket	-6940
▁snow	-6941
▁venn	-6942
harpur	-6943
▁ankur	-6944
▁carry	-6945
▁darsh	-6946
▁earth	-6947
▁gratu	-6948
▁integ	-6949
▁mehar	-6950
▁nagal	-6951
▁noble	-6952
▁shamp	-6953
▁sikar	-6954
▁stock	-6955
▁suman	-6956
▁uloom	-6957
▁vashi	-6958
akkulam	-6959
▁anjuna	-6960
▁arabic	-6961
▁khushi	-6962
▁mutual	-6963
▁myntra	-6964
▁notari	-6965
▁rajast	-6966
▁rakesh	-6967
▁ramach	-6968
▁shalom	-6969
▁swathi	-6970
▁toyota	-6971
district	-6972
▁element	-6973
▁mandira	-6974
▁michael	-6975
▁penteco	-6976
▁samsung	-6977
▁shakthi	-6978
▁vaibhav	-6979
▁advocate	-6980
▁bungalow	-6981
▁firstcry	-6982
▁ecommerce	-6983
▁employees	-6984
▁ernakulam	-6985
▁patanjali	-6986
▁syndicate	-6987
▁consultants	-6988
12	-6989
rn	-6990
apar	-6991
avas	-6992
bagh	-6993
enth	-6994
lege	-6995
otra	-6996
rana	-6997
roll	-6998
sapp	-6999
udem	-7000
udra	-7001
ysis	-7002
▁aam	-7003
▁bpl	-7004
▁fem	-7005
▁gem	-7006
▁git	-7007
▁pit	-7008
▁tcs	-7009
▁zoo	-7010
estic	-7011
ician	-7012
imala	-7013
swami	-7014
▁aram	-7015
▁atul	-7016
▁chul	-7017
▁dump	-7018
▁fram	-7019
▁gear	-7020
▁mile	-7021
▁pard	-7022
▁ship	-7023
▁teja	-7024
andoor	-7025
ayanad	-7026
ikunnu	-7027
isseri	-7028
▁aarti	-7029
▁bhart	-7030
▁drish	-7031
▁exerc	-7032
▁irctc	-7033
▁limit	-7034
▁nandi	-7035
▁pirav	-7036
▁schol	-7037
▁trial	-7038
▁caller	-7039
▁mapila	-7040
▁markaz	-7041
▁mirror	-7042
▁netaji	-7043
▁relief	-7044
▁shakes	-7045
▁sindhu	-7046
▁sourdo	-7047
▁vaikom	-7048
▁aesthet	-7049
▁balance	-7050
▁challan	-7051
▁cooking	-7052
▁gajanan	-7053
▁lekshmi	-7054
▁saibaba	-7055
▁visakha	-7056
▁masjidul	-7057
▁parambil	-7058
▁sanskrit	-7059
orporation	-7060
▁refueling	-7061
▁profession	-7062
▁thiruvanant	-7063
▁sachivalayam	-7064
07	-7065
15	-7066
42	-7067
lc	-7068
of	-7069
hie	-7070
inc	-7071
jai	-7072
lon	-7073
ugu	-7074
▁ae	-7075
▁pf	-7076
akka	-7077
atte	-7078
ekar	-7079
elli	-7080
ized	-7081
mnts	-7082
nadu	-7083
oral	-7084
ropy	-7085
upun	-7086
▁amc	-7087
▁bow	-7088
▁fol	-7089
▁hop	-7090
▁mov	-7091
▁nic	-7092
▁pam	-7093
aloor	-7094
ampet	-7095
angan	-7096
avara	-7097
ikara	-7098
lines	-7099
stone	-7100
▁asso	-7101
▁brow	-7102
▁cert	-7103
▁deli	-7104
▁fuds	-7105
▁gosp	-7106
▁kare	-7107
▁morn	-7108
▁semi	-7109
▁whop	-7110
▁abhin	-7111
▁edapp	-7112
▁indir	-7113
▁kadav	-7114
▁kanha	-7115
▁nayan	-7116
▁panda	-7117
▁peace	-7118
▁serum	-7119
▁skill	-7120
▁teeth	-7121
▁zonal	-7122
appilly	-7123
▁aashir	-7124
▁cleart	-7125
▁khalsa	-7126
▁mirchi	-7127
▁pallip	-7128
▁pastry	-7129
▁rajeev	-7130
▁resour	-7131
▁shivan	-7132
▁statue	-7133
▁artisan	-7134
▁camping	-7135
▁chandig	-7136
▁chemman	-7137
▁colored	-7138
▁contact	-7139
▁cookies	-7140
▁gokulam	-7141
▁kinderg	-7142
▁phoenix	-7143
▁sadguru	-7144
▁solapur	-7145
▁studios	-7146
▁testing	-7147
▁bodakdev	-7148
▁ceramics	-7149
▁graphics	-7150
▁jagdamba	-7151
▁committee	-7152
▁nagarjuna	-7153
▁overnight	-7154
▁thirumala	-7155
▁homoeopathy	-7156
gm	-7157
cer	-7158
ger	-7159
lay	-7160
uja	-7161
▁js	-7162
abit	-7163
aneo	-7164
anny	-7165
ergy	-7166
ffle	-7167
hati	-7168
ilam	-7169
mitt	-7170
phin	-7171
thar	-7172
vana	-7173
▁cen	-7174
▁cum	-7175
▁cup	-7176
▁iel	-7177
▁jha	-7178
▁lit	-7179
▁mob	-7180
▁naw	-7181
▁nre	-7182
▁sym	-7183
alace	-7184
ekara	-7185
hanya	-7186
ights	-7187
karni	-7188
ottai	-7189
uttam	-7190
▁auro	-7191
▁bori	-7192
▁bram	-7193
▁daan	-7194
▁dahi	-7195
▁easy	-7196
▁flat	-7197
▁ganj	-7198
▁hinj	-7199
▁holl	-7200
▁hote	-7201
▁hygi	-7202
▁iccu	-7203
▁inox	-7204
▁jais	-7205
▁jana	-7206
▁juhu	-7207
▁mepp	-7208
▁nish	-7209
▁pazh	-7210
▁pion	-7211
▁poll	-7212
▁rack	-7213
▁rast	-7214
▁side	-7215
▁sita	-7216
▁soil	-7217
▁tric	-7218
ananda	-7219
▁annam	-7220
▁cheer	-7221
▁citiz	-7222
▁dayan	-7223
▁fixed	-7224
▁gauri	-7225
▁kuruv	-7226
▁kuzhi	-7227
▁lalit	-7228
▁pasta	-7229
▁pauls	-7230
▁perin	-7231
▁price	-7232
▁samar	-7233
▁casual	-7234
▁chiray	-7235
▁escape	-7236
▁gaurav	-7237
▁indrap	-7238
▁kanchi	-7239
▁kishan	-7240
▁musjid	-7241
▁pepper	-7242
▁singla	-7243
▁vishwa	-7244
▁applied	-7245
▁aravind	-7246
▁banjara	-7247
▁contrib	-7248
▁dharmas	-7249
▁electro	-7250
▁lalitha	-7251
▁malviya	-7252
▁manohar	-7253
▁pragati	-7254
▁supreme	-7255
▁amravati	-7256
▁digambar	-7257
▁krishnan	-7258
▁pizzeria	-7259
▁southern	-7260
▁devalayam	-7261
▁yelahanka	-7262
▁provisions	-7263
▁devasthanam	-7264
▁vidyanikethan	-7265
dr	-7266
fr	-7267
oa	-7268
vr	-7269
bby	-7270
ech	-7271
esy	-7272
ids	-7273
liv	-7274
lur	-7275
niy	-7276
omy	-7277
sho	-7278
spa	-7279
wid	-7280
▁jc	-7281
▁kw	-7282
▁lt	-7283
avin	-7284
gist	-7285
hama	-7286
ives	-7287
kali	-7288
math	-7289
tala	-7290
user	-7291
▁alo	-7292
▁emu	-7293
▁fer	-7294
▁geo	-7295
▁leh	-7296
▁lin	-7297
▁uns	-7298
▁win	-7299
agara	-7300
agarh	-7301
akthi	-7302
arkar	-7303
rishn	-7304
▁amul	-7305
▁asht	-7306
▁bhuj	-7307
▁camb	-7308
▁dass	-7309
▁deod	-7310
▁ghps	-7311
▁imax	-7312
▁jamb	-7313
▁memb	-7314
▁neha	-7315
▁poor	-7316
▁prod	-7317
▁purn	-7318
▁roof	-7319
▁swap	-7320
▁syro	-7321
angana	-7322
appana	-7323
upalli	-7324
▁angad	-7325
▁blore	-7326
▁dadar	-7327
▁epabx	-7328
▁habib	-7329
▁japan	-7330
▁jeans	-7331
▁mauli	-7332
▁peruv	-7333
▁rolls	-7334
▁shirt	-7335
▁solit	-7336
▁theng	-7337
▁vasud	-7338
▁volvo	-7339
akkayam	-7340
anchira	-7341
cuisine	-7342
palayam	-7343
▁anchal	-7344
▁august	-7345
▁bamboo	-7346
▁bihari	-7347
▁fatima	-7348
▁janani	-7349
▁puthan	-7350
▁satish	-7351
▁settle	-7352
▁wealth	-7353
▁chappel	-7354
▁chavara	-7355
▁content	-7356
▁imaging	-7357
▁kanchan	-7358
▁mandate	-7359
▁manipal	-7360
▁morning	-7361
▁pending	-7362
▁roasted	-7363
▁routine	-7364
▁aviation	-7365
▁bootcamp	-7366
▁ravindra	-7367
▁republic	-7368
▁shepherd	-7369
▁suraksha	-7370
▁kidangoor	-7371
▁sangeetha	-7372
▁coperative	-7373
▁perumbavoor	-7374
▁pediatrician	-7375
17	-7376
33	-7377
zz	-7378
bra	-7379
cel	-7380
rin	-7381
vir	-7382
yat	-7383
▁zp	-7384
akan	-7385
ated	-7386
diya	-7387
iyam	-7388
life	-7389
over	-7390
rama	-7391
uran	-7392
▁100	-7393
▁aai	-7394
▁add	-7395
▁ana	-7396
▁has	-7397
▁hen	-7398
▁lah	-7399
▁naj	-7400
▁neo	-7401
▁onc	-7402
▁teh	-7403
▁tor	-7404
▁yag	-7405
▁yuv	-7406
anshi	-7407
dhist	-7408
known	-7409
ument	-7410
▁bhil	-7411
▁cond	-7412
▁dtdc	-7413
▁frag	-7414
▁kary	-7415
▁mett	-7416
▁nara	-7417
▁plug	-7418
▁pura	-7419
▁thad	-7420
▁thav	-7421
▁zoom	-7422
uthala	-7423
zation	-7424
▁amrut	-7425
▁anglo	-7426
▁annex	-7427
▁break	-7428
▁goods	-7429
▁kabab	-7430
▁koduv	-7431
▁lunch	-7432
▁mills	-7433
▁muthu	-7434
▁nanda	-7435
▁paani	-7436
▁ranga	-7437
enchery	-7438
▁bakshi	-7439
▁dulhan	-7440
▁gobind	-7441
▁island	-7442
▁mayura	-7443
▁organi	-7444
▁pharme	-7445
▁pimpal	-7446
▁poonam	-7447
▁radhak	-7448
▁smiles	-7449
▁speech	-7450
▁vedant	-7451
aparambu	-7452
▁bhairav	-7453
▁jagdish	-7454
▁multisp	-7455
▁noodles	-7456
▁profile	-7457
▁refined	-7458
▁refresh	-7459
▁shelter	-7460
▁campsite	-7461
▁godavari	-7462
▁lifeline	-7463
▁mountain	-7464
▁sahyadri	-7465
▁videocon	-7466
▁negotiate	-7467
▁selection	-7468
▁specialty	-7469
▁surgicals	-7470
▁padmavathi	-7471
▁categorized	-7472
▁gynecologist	-7473
mt	-7474
agr	-7475
avn	-7476
emp	-7477
etr	-7478
wer	-7479
▁27	-7480
▁rf	-7481
adom	-7482
enga	-7483
geon	-7484
hole	-7485
ipet	-7486
ivas	-7487
lies	-7488
padi	-7489
rath	-7490
unga	-7491
▁cee	-7492
▁dim	-7493
▁ecr	-7494
▁gaz	-7495
▁get	-7496
▁hsr	-7497
▁jaw	-7498
▁pgi	-7499
▁uch	-7500
▁zen	-7501
avila	-7502
ayoor	-7503
emple	-7504
enath	-7505
ipara	-7506
stige	-7507
unkal	-7508
▁badi	-7509
▁bhur	-7510
▁bore	-7511
▁deta	-7512
▁digi	-7513
▁epil	-7514
▁faas	-7515
▁hing	-7516
▁nada	-7517
▁pann	-7518
▁true	-7519
asaheb	-7520
athodu	-7521
ithara	-7522
▁adyar	-7523
▁aruna	-7524
▁chell	-7525
▁farms	-7526
▁gauze	-7527
▁ielts	-7528
▁james	-7529
▁jammu	-7530
▁ksrtc	-7531
▁manch	-7532
▁nizam	-7533
▁palak	-7534
▁seeds	-7535
▁steak	-7536
▁tempo	-7537
▁umang	-7538
▁aakash	-7539
▁contra	-7540
▁devasw	-7541
▁diesel	-7542
▁empori	-7543
▁events	-7544
▁gospel	-7545
▁kalari	-7546
▁lifest	-7547
▁sachin	-7548
▁sketch	-7549
▁themed	-7550
▁tunnel	-7551
▁dolphin	-7552
▁federal	-7553
▁heights	-7554
▁hotspot	-7555
▁miscell	-7556
▁parvati	-7557
▁piravom	-7558
▁samadhi	-7559
▁sanchar	-7560
▁buddhist	-7561
▁dhanvant	-7562
▁exercise	-7563
▁fastfood	-7564
▁function	-7565
▁mahakali	-7566
▁majestic	-7567
▁marriott	-7568
▁mohammad	-7569
▁ophthalm	-7570
▁santhosh	-7571
▁victoria	-7572
▁chartered	-7573
▁navjeevan	-7574
▁provident	-7575
▁screening	-7576
▁ballygunge	-7577
▁nethralaya	-7578
▁ramkrishna	-7579
▁stationers	-7580
▁supercoins	-7581
▁handicrafts	-7582
▁kunnamkulam	-7583
▁architecture	-7584
▁neriamangalam	-7585
14	-7586
aks	-7587
api	-7588
dih	-7589
imo	-7590
mil	-7591
pro	-7592
▁dk	-7593
▁gw	-7594
▁lg	-7595
▁ll	-7596
▁uv	-7597
chak	-7598
edes	-7599
eeya	-7600
elin	-7601
oork	-7602
otel	-7603
ulty	-7604
vely	-7605
▁buk	-7606
▁ful	-7607
▁kgn	-7608
▁miy	-7609
▁ney	-7610
▁rab	-7611
▁vam	-7612
align	-7613
athra	-7614
atics	-7615
avala	-7616
avali	-7617
iguri	-7618
iting	-7619
▁agri	-7620
▁alag	-7621
▁amir	-7622
▁cycl	-7623
▁dial	-7624
▁glow	-7625
▁icon	-7626
▁prah	-7627
▁sahe	-7628
▁thop	-7629
▁wond	-7630
▁zain	-7631
athala	-7632
ervala	-7633
idavit	-7634
ithura	-7635
morial	-7636
onment	-7637
rampur	-7638
ressed	-7639
thanam	-7640
▁agarb	-7641
▁aryan	-7642
▁aundh	-7643
▁chats	-7644
▁crowd	-7645
▁excel	-7646
▁hiday	-7647
▁kaush	-7648
▁kulam	-7649
▁prote	-7650
▁radhi	-7651
▁renew	-7652
▁tiwar	-7653
▁valli	-7654
▁wakad	-7655
rishnan	-7656
▁anurag	-7657
▁bhatia	-7658
▁braces	-7659
▁chakki	-7660
▁couple	-7661
▁encycl	-7662
▁minist	-7663
▁nandan	-7664
▁pranav	-7665
▁vikram	-7666
▁antonys	-7667
▁cabinet	-7668
▁kallara	-7669
▁khajoor	-7670
▁leisure	-7671
▁lourdes	-7672
▁navrang	-7673
▁plastic	-7674
▁poultry	-7675
▁present	-7676
▁thyroid	-7677
▁valiyap	-7678
▁friendly	-7679
▁philanth	-7680
▁secunder	-7681
▁associate	-7682
▁batteries	-7683
▁imitation	-7684
▁sourdough	-7685
▁vastrapur	-7686
▁annapoorna	-7687
▁disposable	-7688
▁gregorious	-7689
▁instrument	-7690
▁mechanical	-7691
▁reservation	-7692
▁vidyamandir	-7693
ix	-7694
arg	-7695
ful	-7696
lia	-7697
ork	-7698
rem	-7699
she	-7700
the	-7701
vam	-7702
▁bd	-7703
▁bj	-7704
ahal	-7705
anji	-7706
aste	-7707
ettu	-7708
huja	-7709
issi	-7710
khed	-7711
otto	-7712
urti	-7713
▁ace	-7714
▁deo	-7715
▁duv	-7716
▁ghs	-7717
▁leo	-7718
▁lil	-7719
▁ong	-7720
▁pmp	-7721
▁slv	-7722
▁ssc	-7723
akavu	-7724
andha	-7725
arten	-7726
clean	-7727
edian	-7728
icode	-7729
kumar	-7730
pping	-7731
▁abhy	-7732
▁adda	-7733
▁ambe	-7734
▁axis	-7735
▁bare	-7736
▁chot	-7737
▁code	-7738
▁daya	-7739
▁fern	-7740
▁long	-7741
▁nhai	-7742
▁rava	-7743
▁riya	-7744
▁shra	-7745
▁sonu	-7746
▁ster	-7747
▁toto	-7748
▁your	-7749
aneous	-7750
arayan	-7751
inkara	-7752
▁ameer	-7753
▁chrom	-7754
▁hanum	-7755
▁haris	-7756
▁kadai	-7757
▁kamla	-7758
▁karad	-7759
▁manna	-7760
▁palai	-7761
▁round	-7762
▁shubh	-7763
▁value	-7764
▁waves	-7765
ushadhi	-7766
▁apsara	-7767
▁coding	-7768
▁madhur	-7769
▁panini	-7770
▁parakk	-7771
▁peters	-7772
▁policy	-7773
▁raksha	-7774
▁roshan	-7775
▁spread	-7776
▁tradit	-7777
▁adithya	-7778
▁allergy	-7779
▁aswathy	-7780
▁coastal	-7781
▁eatsure	-7782
▁faculty	-7783
▁lazypay	-7784
▁novelty	-7785
▁periyar	-7786
▁phonepe	-7787
▁pratham	-7788
▁radhika	-7789
ification	-7790
▁footpath	-7791
▁haldiram	-7792
▁indriver	-7793
▁inverter	-7794
▁naturals	-7795
▁nilambur	-7796
▁pathanam	-7797
▁vetenary	-7798
▁whatsapp	-7799
ikulangara	-7800
▁chemistry	-7801
▁lifestyle	-7802
▁pollution	-7803
▁pregnancy	-7804
▁excellence	-7805
▁television	-7806
▁restaurants	-7807
▁transaction	-7808
▁vaccination	-7809
▁distribution	-7810
▁marathahalli	-7811
▁pathanamthitta	-7812
22	-7813
lt	-7814
wi	-7815
aan	-7816
aza	-7817
ece	-7818
eru	-7819
hli	-7820
hun	-7821
mit	-7822
ost	-7823
▁gb	-7824
agal	-7825
aras	-7826
azhi	-7827
hila	-7828
hman	-7829
mesh	-7830
odar	-7831
ohit	-7832
onto	-7833
orie	-7834
oyil	-7835
time	-7836
vere	-7837
▁aal	-7838
▁agn	-7839
▁bot	-7840
▁dat	-7841
▁edu	-7842
▁ioc	-7843
▁opp	-7844
▁pbx	-7845
▁vig	-7846
ithra	-7847
rasad	-7848
roach	-7849
ulana	-7850
▁barb	-7851
▁baru	-7852
▁bean	-7853
▁bric	-7854
▁bulb	-7855
▁chic	-7856
▁emir	-7857
▁expo	-7858
▁ghan	-7859
▁hare	-7860
▁item	-7861
▁kuma	-7862
▁mich	-7863
▁nava	-7864
▁navi	-7865
▁vats	-7866
▁vent	-7867
▁zoho	-7868
apathy	-7869
▁artif	-7870
▁balls	-7871
▁hatti	-7872
▁indra	-7873
▁kosha	-7874
▁landl	-7875
▁lipid	-7876
▁matka	-7877
▁megha	-7878
▁parsh	-7879
▁regal	-7880
▁shadi	-7881
▁shelf	-7882
▁simpl	-7883
▁thank	-7884
▁tirur	-7885
▁track	-7886
▁unity	-7887
▁unreg	-7888
▁veera	-7889
▁voice	-7890
ription	-7891
▁batata	-7892
▁bharan	-7893
▁canvas	-7894
▁cookie	-7895
▁fusion	-7896
▁lakshm	-7897
▁mathur	-7898
▁puthiy	-7899
▁sounds	-7900
▁tehsil	-7901
▁transf	-7902
▁horizon	-7903
▁indrive	-7904
▁kothari	-7905
▁kothrud	-7906
▁vitthal	-7907
▁backpack	-7908
▁crossfit	-7909
▁gratuity	-7910
▁kottaram	-7911
▁metropol	-7912
▁narendra	-7913
▁pandalam	-7914
▁parvathi	-7915
▁prestige	-7916
▁provider	-7917
▁psychiat	-7918
▁referral	-7919
▁adventist	-7920
▁bellandur	-7921
▁horticult	-7922
▁solitaire	-7923
▁tharavadu	-7924
▁warehouse	-7925
▁digilocker	-7926
▁parameshwari	-7927
▁secunderabad	-7928
▁specialities	-7929
▁confectionery	-7930
hg	-7931
wo	-7932
afa	-7933
atl	-7934
den	-7935
hub	-7936
lab	-7937
ogi	-7938
rel	-7939
▁77	-7940
▁og	-7941
elia	-7942
elil	-7943
hoos	-7944
odia	-7945
wall	-7946
▁aas	-7947
▁gum	-7948
▁ign	-7949
▁kim	-7950
▁lon	-7951
▁luc	-7952
▁mug	-7953
▁ppf	-7954
apsar	-7955
fleet	-7956
manna	-7957
orant	-7958
uvery	-7959
▁bagu	-7960
▁bose	-7961
▁cgst	-7962
▁conn	-7963
▁hass	-7964
▁icse	-7965
▁kesh	-7966
▁kher	-7967
▁lakk	-7968
▁laxm	-7969
▁mukt	-7970
▁prom	-7971
▁resh	-7972
▁rtgs	-7973
▁sava	-7974
▁shen	-7975
▁sofa	-7976
▁sult	-7977
ancore	-7978
andhar	-7979
angarh	-7980
apatti	-7981
edical	-7982
icians	-7983
myshow	-7984
yodaya	-7985
▁akbar	-7986
▁crate	-7987
▁dubai	-7988
▁exhib	-7989
▁human	-7990
▁jumua	-7991
▁karum	-7992
▁minim	-7993
▁pathi	-7994
▁sidhi	-7995
▁viral	-7996
▁wrist	-7997
angabad	-7998
ayawada	-7999
▁ambadi	-8000
▁balika	-8001
▁fundra	-8002
▁gofund	-8003
▁kadhai	-8004
▁pathan	-8005
▁samrat	-8006
▁banquet	-8007
▁bouquet	-8008
▁drishti	-8009
▁karunya	-8010
▁kishore	-8011
▁lodging	-8012
▁mahagan	-8013
▁sandhya	-8014
▁sankalp	-8015
▁shoppee	-8016
▁truffle	-8017
▁unknown	-8018
▁vasanth	-8019
▁workout	-8020
leshwaram	-8021
▁balinese	-8022
▁goregaon	-8023
▁indrapra	-8024
▁islampur	-8025
▁mukherje	-8026
▁plywoods	-8027
▁shalimar	-8028
▁teachers	-8029
▁photostat	-8030
▁vrindavan	-8031
▁assessment	-8032
▁automotive	-8033
▁priyadarsh	-8034
▁rajasthani	-8035
▁recreation	-8036
▁naturopathy	-8037
▁muvattupuzha	-8038
▁pharmaceutical	-8039
ewa	-8040
gas	-8041
gov	-8042
jay	-8043
nas	-8044
ria	-8045
sai	-8046
chet	-8047
dhan	-8048
gies	-8049
lary	-8050
lore	-8051
oday	-8052
otta	-8053
ount	-8054
▁alm	-8055
▁beg	-8056
▁foc	-8057
▁jin	-8058
▁ujj	-8059
akhya	-8060
akudy	-8061
ariat	-8062
asamy	-8063
digul	-8064
hajan	-8065
ulate	-8066
yalay	-8067
▁alco	-8068
▁aran	-8069
▁asia	-8070
▁baga	-8071
▁beef	-8072
▁belt	-8073
▁bicy	-8074
▁dong	-8075
▁dung	-8076
▁flex	-8077
▁kaka	-8078
▁kozh	-8079
▁phul	-8080
▁soul	-8081
▁timb	-8082
▁umar	-8083
▁veet	-8084
ankari	-8085
cement	-8086
ctures	-8087
▁amala	-8088
▁arakk	-8089
▁crust	-8090
▁ferry	-8091
▁fibre	-8092
▁flori	-8093
▁kurti	-8094
▁makka	-8095
▁manju	-8096
▁nisha	-8097
▁patti	-8098
▁pulse	-8099
▁shutt	-8100
▁story	-8101
▁stuff	-8102
▁tutor	-8103
akkunnu	-8104
appalli	-8105
athanam	-8106
▁academ	-8107
▁career	-8108
▁charan	-8109
▁comedy	-8110
▁greens	-8111
▁martin	-8112
▁microb	-8113
▁minute	-8114
▁neelam	-8115
▁partha	-8116
▁refrig	-8117
▁thamar	-8118
eshwaram	-8119
▁defence	-8120
▁designs	-8121
▁hygiene	-8122
▁jalaram	-8123
▁kannada	-8124
▁learner	-8125
▁microsc	-8126
▁mubarak	-8127
▁municip	-8128
▁orchids	-8129
▁rajaraj	-8130
▁sangeet	-8131
▁senthil	-8132
▁seventh	-8133
▁tandoor	-8134
▁working	-8135
ayamkulam	-8136
▁dindigul	-8137
▁footware	-8138
▁kamakshi	-8139
▁lutheran	-8140
▁restobar	-8141
▁sherwani	-8142
▁sundaram	-8143
▁designers	-8144
▁tamilnadu	-8145
▁telangana	-8146
▁compressed	-8147
▁experience	-8148
▁membership	-8149
▁	-8150
a	-8151
e	-8152
r	-8153
i	-8154
n	-8155
t	-8156
s	-8157
o	-8158
h	-8159
l	-8160
c	-8161
m	-8162
d	-8163
u	-8164
p	-8165
g	-8166
k	-8167
b	-8168
y	-8169
v	-8170
f	-8171
w	-8172
j	-8173
'	-8174
z	-8175
x	-8176
-	-8177
q	-8178
1	-8179
2	-8180
4	-8181
3	-8182
/	-8183
0	-8184
7	-8185
5	-8186
